<unk>	0
<s>	0
</s>	0
<0x00>	0
<0x01>	0
<0x02>	0
<0x03>	0
<0x04>	0
<0x05>	0
<0x06>	0
<0x07>	0
<0x08>	0
<0x09>	0
<0x0A>	0
<0x0B>	0
<0x0C>	0
<0x0D>	0
<0x0E>	0
<0x0F>	0
<0x10>	0
<0x11>	0
<0x12>	0
<0x13>	0
<0x14>	0
<0x15>	0
<0x16>	0
<0x17>	0
<0x18>	0
<0x19>	0
<0x1A>	0
<0x1B>	0
<0x1C>	0
<0x1D>	0
<0x1E>	0
<0x1F>	0
<0x20>	0
<0x21>	0
<0x22>	0
<0x23>	0
<0x24>	0
<0x25>	0
<0x26>	0
<0x27>	0
<0x28>	0
<0x29>	0
<0x2A>	0
<0x2B>	0
<0x2C>	0
<0x2D>	0
<0x2E>	0
<0x2F>	0
<0x30>	0
<0x31>	0
<0x32>	0
<0x33>	0
<0x34>	0
<0x35>	0
<0x36>	0
<0x37>	0
<0x38>	0
<0x39>	0
<0x3A>	0
<0x3B>	0
<0x3C>	0
<0x3D>	0
<0x3E>	0
<0x3F>	0
<0x40>	0
<0x41>	0
<0x42>	0
<0x43>	0
<0x44>	0
<0x45>	0
<0x46>	0
<0x47>	0
<0x48>	0
<0x49>	0
<0x4A>	0
<0x4B>	0
<0x4C>	0
<0x4D>	0
<0x4E>	0
<0x4F>	0
<0x50>	0
<0x51>	0
<0x52>	0
<0x53>	0
<0x54>	0
<0x55>	0
<0x56>	0
<0x57>	0
<0x58>	0
<0x59>	0
<0x5A>	0
<0x5B>	0
<0x5C>	0
<0x5D>	0
<0x5E>	0
<0x5F>	0
<0x60>	0
<0x61>	0
<0x62>	0
<0x63>	0
<0x64>	0
<0x65>	0
<0x66>	0
<0x67>	0
<0x68>	0
<0x69>	0
<0x6A>	0
<0x6B>	0
<0x6C>	0
<0x6D>	0
<0x6E>	0
<0x6F>	0
<0x70>	0
<0x71>	0
<0x72>	0
<0x73>	0
<0x74>	0
<0x75>	0
<0x76>	0
<0x77>	0
<0x78>	0
<0x79>	0
<0x7A>	0
<0x7B>	0
<0x7C>	0
<0x7D>	0
<0x7E>	0
<0x7F>	0
<0x80>	0
<0x81>	0
<0x82>	0
<0x83>	0
<0x84>	0
<0x85>	0
<0x86>	0
<0x87>	0
<0x88>	0
<0x89>	0
<0x8A>	0
<0x8B>	0
<0x8C>	0
<0x8D>	0
<0x8E>	0
<0x8F>	0
<0x90>	0
<0x91>	0
<0x92>	0
<0x93>	0
<0x94>	0
<0x95>	0
<0x96>	0
<0x97>	0
<0x98>	0
<0x99>	0
<0x9A>	0
<0x9B>	0
<0x9C>	0
<0x9D>	0
<0x9E>	0
<0x9F>	0
<0xA0>	0
<0xA1>	0
<0xA2>	0
<0xA3>	0
<0xA4>	0
<0xA5>	0
<0xA6>	0
<0xA7>	0
<0xA8>	0
<0xA9>	0
<0xAA>	0
<0xAB>	0
<0xAC>	0
<0xAD>	0
<0xAE>	0
<0xAF>	0
<0xB0>	0
<0xB1>	0
<0xB2>	0
<0xB3>	0
<0xB4>	0
<0xB5>	0
<0xB6>	0
<0xB7>	0
<0xB8>	0
<0xB9>	0
<0xBA>	0
<0xBB>	0
<0xBC>	0
<0xBD>	0
<0xBE>	0
<0xBF>	0
<0xC0>	0
<0xC1>	0
<0xC2>	0
<0xC3>	0
<0xC4>	0
<0xC5>	0
<0xC6>	0
<0xC7>	0
<0xC8>	0
<0xC9>	0
<0xCA>	0
<0xCB>	0
<0xCC>	0
<0xCD>	0
<0xCE>	0
<0xCF>	0
<0xD0>	0
<0xD1>	0
<0xD2>	0
<0xD3>	0
<0xD4>	0
<0xD5>	0
<0xD6>	0
<0xD7>	0
<0xD8>	0
<0xD9>	0
<0xDA>	0
<0xDB>	0
<0xDC>	0
<0xDD>	0
<0xDE>	0
<0xDF>	0
<0xE0>	0
<0xE1>	0
<0xE2>	0
<0xE3>	0
<0xE4>	0
<0xE5>	0
<0xE6>	0
<0xE7>	0
<0xE8>	0
<0xE9>	0
<0xEA>	0
<0xEB>	0
<0xEC>	0
<0xED>	0
<0xEE>	0
<0xEF>	0
<0xF0>	0
<0xF1>	0
<0xF2>	0
<0xF3>	0
<0xF4>	0
<0xF5>	0
<0xF6>	0
<0xF7>	0
<0xF8>	0
<0xF9>	0
<0xFA>	0
<0xFB>	0
<0xFC>	0
<0xFD>	0
<0xFE>	0
<0xFF>	0
萧炎	-0
..	-1
▁“	-2
也是	-3
便是	-4
了一	-5
。”	-6
...	-7
目光	-8
:“	-9
有些	-10
却是	-11
....	-12
!”	-13
都是	-14
?”	-15
望着	-16
能够	-17
之中	-18
有着	-19
不过	-20
他们	-21
旋即	-22
而出	-23
现在	-24
一道	-25
强者	-26
缓缓	-27
之上	-28
对着	-29
实力	-30
这种	-31
没有	-32
时间	-33
微微	-34
什么	-35
然后	-36
火焰	-37
心中	-38
一些	-39
的话	-40
能量	-41
斗气	-42
起来	-43
最后	-44
...”	-45
身体	-46
若是	-47
这些	-48
一个	-49
▁萧炎	-50
知道	-51
长老	-52
点头	-53
已经	-54
笑道	-55
家伙	-56
大的	-57
药老	-58
灵魂	-59
一般	-60
然是	-61
顿时	-62
体内	-63
见到	-64
▁在	-65
这般	-66
的那	-67
手掌	-68
脸庞	-69
的人	-70
对于	-71
的一	-72
的道	-73
空间	-74
自己	-75
如今	-76
这个	-77
虽然	-78
突然	-79
般的	-80
脸色	-81
这一	-82
之后	-83
让得	-84
声音	-85
来的	-86
令得	-87
恐怕	-88
犹如	-89
望着那	-90
萧炎的	-91
方才	-92
炼药	-93
随着	-94
......	-95
一抹	-96
因为	-97
他的	-98
也不	-99
直接	-100
我们	-101
身形	-102
面前	-103
点了	-104
薰儿	-105
极为	-106
如此	-107
了一口	-108
东西	-109
出现	-110
天空	-111
点了点头	-112
淡淡	-113
而且	-114
声道	-115
在这	-116
手中	-117
等人	-118
上的	-119
一股	-120
力量	-121
不是	-122
那些	-123
修炼	-124
异火	-125
医仙	-126
竟然	-127
丹药	-128
小医仙	-129
之内	-130
再度	-131
似乎	-132
的萧炎	-133
逐渐	-134
了起来	-135
眼中	-136
倒是	-137
略微	-138
闻言	-139
炼药师	-140
恐怖	-141
听得	-142
人的	-143
到了	-144
此刻	-145
了一口气	-146
还是	-147
不会	-148
因此	-149
狠狠	-150
呵呵	-151
迅速	-152
感觉	-153
终于	-154
应该	-155
进入	-156
在那	-157
并未	-158
出现在	-159
几乎	-160
所以	-161
时候	-162
出来	-163
先前	-164
然而	-165
想要	-166
摇头	-167
一笑	-168
变得	-169
其中	-170
下来	-171
不少	-172
。“	-173
是一	-174
忽然	-175
魂殿	-176
以及	-177
不断	-178
片刻	-179
猛然	-180
身影	-181
响起	-182
后者	-183
摇了	-184
老者	-185
了一声	-186
并不	-187
两人	-188
速度	-189
不住	-190
缓缓的	-191
气息	-192
摇了摇头	-193
居然	-194
化为	-195
盯着	-196
云岚	-197
只是	-198
周围	-199
想到	-200
你们	-201
需要	-202
这里	-203
在萧炎	-204
炼制	-205
势力	-206
笑着	-207
面色	-208
终于是	-209
云岚宗	-210
而去	-211
色的	-212
所有	-213
了一眼	-214
一声	-215
可能	-216
的地	-217
紫研	-218
心头	-219
的实力	-220
瞬间	-221
眉头	-222
算是	-223
纳兰	-224
浮现	-225
尊者	-226
无数	-227
美杜	-228
▁闻言	-229
当下	-230
一名	-231
开始	-232
即便是	-233
美杜莎	-234
丝毫	-235
众人	-236
可以	-237
发现	-238
许多	-239
出手	-240
真是	-241
看来	-242
或许	-243
帝国	-244
模样	-245
皆是	-246
只能	-247
▁见到	-248
当年	-249
轻轻	-250
内院	-251
难以	-252
怎么	-253
真正	-254
的目光	-255
一种	-256
这么	-257
一旁	-258
如同	-259
中的	-260
身上	-261
魔兽	-262
的事	-263
▁听得	-264
彻底	-265
忍不住	-266
隐隐	-267
可是	-268
之下	-269
在了	-270
家族	-271
就是	-272
波动	-273
的确	-274
的能量	-275
星斗	-276
清楚	-277
在其	-278
将会	-279
一道道	-280
而下	-281
一阵	-282
落下	-283
狠狠的	-284
了一下	-285
微微一	-286
这等	-287
一次	-288
如何	-289
没想到	-290
药材	-291
淡淡的	-292
将之	-293
笑了	-294
自然是	-295
不由	-296
自然	-297
那么	-298
弥漫	-299
身后	-300
甚至	-301
一下	-302
天地	-303
刚刚	-304
今日	-305
的强者	-306
出了	-307
陡然	-308
广场	-309
斗技	-310
诡异	-311
消失	-312
仅仅	-313
那种	-314
三人	-315
颇为	-316
之外	-317
脸庞上	-318
带着	-319
漆黑	-320
远处	-321
波东	-322
虽说	-323
攻击	-324
海波东	-325
只要	-326
不断的	-327
色火焰	-328
不错	-329
笑了笑	-330
越来	-331
未曾	-332
越来越	-333
小的	-334
片刻后	-335
无奈	-336
身旁	-337
猛的	-338
眼睛	-339
的大	-340
的黑	-341
的望着	-342
之力	-343
传出	-344
笑容	-345
逐渐的	-346
不知道	-347
爆发	-348
之色	-349
的声音	-350
暴涌	-351
嫣然	-352
斗宗	-353
天际	-354
了下来	-355
感受	-356
既然	-357
▁随着	-358
这才	-359
毕竟	-360
苏千	-361
加玛	-362
老人	-363
天空上	-364
而开	-365
尽数	-366
战斗	-367
庞大的	-368
完全	-369
可怕	-370
........	-371
青年	-372
瞧得	-373
在一	-374
并非	-375
而起	-376
巨大的	-377
许些	-378
再次	-379
......”	-380
闪电	-381
不由得	-382
真正的	-383
斗皇	-384
忍不住的	-385
出现在了	-386
注视	-387
男子	-388
萧炎也是	-389
真的	-390
了许多	-391
依旧	-392
宛如	-393
距离	-394
察觉	-395
人影	-396
凝聚	-397
同样	-398
如果	-399
上去	-400
拳头	-401
达到	-402
的盯着	-403
加玛帝国	-404
的灵魂	-405
施展	-406
一眼	-407
▁而	-408
山脉	-409
▁望着	-410
奇异	-411
略微有些	-412
急速	-413
日后	-414
凝重	-415
脚步	-416
之间	-417
任何	-418
小子	-419
韩枫	-420
萧家	-421
之时	-422
地面	-423
直接是	-424
这位	-425
的空间	-426
大陆	-427
来说	-428
纳戒	-429
离开	-430
纳兰嫣然	-431
小心	-432
当然	-433
而来	-434
成功	-435
对着萧炎	-436
学院	-437
而已	-438
成为	-439
拍卖	-440
掠过	-441
脸颊	-442
视线	-443
还有	-444
药鼎	-445
整个	-446
那个	-447
火莲	-448
并且	-449
此时	-450
不能	-451
手指	-452
明白	-453
其他	-454
一动	-455
的斗气	-456
一直	-457
嘴角	-458
太过	-459
对方	-460
光芒	-461
冷笑	-462
并没有	-463
轻声道	-464
层次	-465
声响	-466
那里	-467
是在	-468
佣兵	-469
年轻	-470
不然	-471
明显	-472
重尺	-473
炽热	-474
意的	-475
角域	-476
疯狂	-477
经过	-478
了一些	-479
▁望着那	-480
天火	-481
安静	-482
不得	-483
极其	-484
感觉到	-485
闪掠	-486
不要	-487
有所	-488
少年	-489
黑袍	-490
将近	-491
嘴中	-492
显然	-493
这片	-494
之声	-495
二人	-496
究竟	-497
▁对于	-498
又是	-499
半空	-500
陨落	-501
一点	-502
众多	-503
此次	-504
中州	-505
迟疑	-506
朋友	-507
依然	-508
神秘	-509
不可能	-510
妖火	-511
就算是	-512
当初	-513
这是	-514
的时间	-515
急忙	-516
虚无	-517
问道	-518
闪烁	-519
得到	-520
暴涌而出	-521
重重	-522
巅峰	-523
老夫	-524
黑角域	-525
则是	-526
沉吟	-527
之人	-528
岩浆	-529
浓郁	-530
看见	-531
麻烦	-532
松了一口气	-533
下方	-534
显得	-535
不知	-536
不管	-537
前者	-538
抬起	-539
现在的	-540
魂族	-541
云山	-542
更新	-543
的新	-544
过来	-545
你的	-546
斗尊	-547
所谓	-548
老师	-549
的小	-550
喝声	-551
的血	-552
此处	-553
丹塔	-554
包裹	-555
女子	-556
寻常	-557
过去	-558
进了	-559
更是	-560
感到	-561
暴射	-562
相当	-563
黑色	-564
嘿嘿	-565
扫过	-566
想必	-567
脑袋	-568
转向	-569
冲着	-570
鲜血	-571
扩散	-572
女人	-573
一旁的	-574
转身	-575
必须	-576
了一个	-577
古族	-578
场中	-579
将那	-580
萧厉	-581
这次	-582
阴沉	-583
就在	-584
老家伙	-585
紧紧	-586
遇见	-587
消散	-588
抬头	-589
老鬼	-590
在此刻	-591
这样	-592
眼眸	-593
半点	-594
只有	-595
原本	-596
心火	-597
剧烈	-598
蕴含	-599
功法	-600
一口	-601
到时候	-602
不敢	-603
存在	-604
第一	-605
雅妃	-606
着那	-607
闪电般的	-608
以前	-609
净莲	-610
实在	-611
发出	-612
大长老	-613
一挥	-614
喃喃	-615
无形	-616
生的	-617
拥有着	-618
果然	-619
三千	-620
另外	-621
这一次	-622
级别	-623
下去	-624
大厅	-625
强悍	-626
菩提	-627
那般	-628
无奈的	-629
几乎是	-630
灵魂力量	-631
女王	-632
房间	-633
恐怖的	-634
云韵	-635
缘故	-636
心炎	-637
最为	-638
自己的	-639
强横	-640
手臂	-641
绝对	-642
并非是	-643
推荐	-644
举动	-645
左右	-646
状态	-647
一片	-648
碧绿	-649
便是能够	-650
不到	-651
同时	-652
联盟	-653
已是	-654
望向	-655
这东西	-656
稳定	-657
即便	-658
难道	-659
好看	-660
闪过	-661
即使	-662
的感觉	-663
这家伙	-664
了几	-665
古河	-666
足以	-667
天妖	-668
护法	-669
少女	-670
提升	-671
至于	-672
伴随着	-673
满脸	-674
变化	-675
温度	-676
持续	-677
萧炎等人	-678
了出来	-679
不仅	-680
看上去	-681
收藏	-682
起身	-683
骤然	-684
无法	-685
的地方	-686
脚掌	-687
在这里	-688
陨落心炎	-689
裂缝	-690
的朋友	-691
之前	-692
萧炎那	-693
半晌	-694
充斥	-695
喝道	-696
隐隐间	-697
吞噬	-698
弟子	-699
为了	-700
紧握	-701
使用	-702
笑声	-703
至少	-704
那位	-705
斗王	-706
远古	-707
微微一笑	-708
先生	-709
多少	-710
心神	-711
加列	-712
即将	-713
多年	-714
突破	-715
眼瞳	-716
融合	-717
便是会	-718
所说	-719
石台	-720
沉声道	-721
之处	-722
的火	-723
过头	-724
还不错	-725
停留	-726
的青	-727
而来的	-728
拥有	-729
卷轴	-730
净莲妖火	-731
一本	-732
深处	-733
不远处	-734
南学院	-735
淡淡的道	-736
的东西	-737
欢迎	-738
一怔	-739
只得	-740
风雷	-741
十几	-742
眸子	-743
质量	-744
准备	-745
感应	-746
响彻	-747
气势	-748
略有些	-749
如今的	-750
等级	-751
看一下	-752
面前的	-753
一枚	-754
的望着那	-755
背后	-756
微微点头	-757
将其	-758
徐徐	-759
的那些	-760
去了	-761
情况	-762
炎谷	-763
推荐一本	-764
两道	-765
悄然	-766
睁开	-767
订阅	-768
长的	-769
地的	-770
涌上	-771
美杜莎女王	-772
》,	-773
颤抖	-774
的朋友可以	-775
双眼	-776
出来的	-777
▁推荐一本	-778
斗圣	-779
所有人	-780
稳定更新	-781
不了	-782
书荒	-783
狗神	-784
的新作	-785
闹书荒	-786
收藏订阅	-787
好看的新作	-788
质量还不错	-789
欢迎收藏订阅	-790
的朋友可以看一下	-791
▁推荐一本好看的新作	-792
闹书荒的朋友可以看一下	-793
还能	-794
迦南学院	-795
而是	-796
▁这	-797
接触	-798
位置	-799
但却	-800
气的	-801
炼化	-802
让人	-803
除了	-804
▁一	-805
星陨	-806
柳擎	-807
暴掠	-808
液体	-809
猛的一	-810
念头	-811
分钟	-812
悬浮	-813
冰冷	-814
强行	-815
顺着	-816
涌现	-817
那一	-818
手印	-819
竟然是	-820
露出	-821
一人	-822
他们的	-823
星陨阁	-824
继续	-825
在一起	-826
段时间	-827
一丝	-828
两个	-829
动着	-830
他也	-831
斗宗强者	-832
劲风	-833
那股	-834
之中的	-835
机会	-836
面对着	-837
面的	-838
立刻	-839
控制	-840
斗师	-841
▁在萧炎	-842
俏脸	-843
天帝	-844
放心	-845
远远	-846
察觉到	-847
”,	-848
玉瓶	-849
给我	-850
袖袍	-851
连忙	-852
阶别	-853
苍白	-854
虚空	-855
所谓的	-856
平静	-857
消息	-858
动手	-859
出去	-860
细微	-861
黑影	-862
有些不	-863
资格	-864
身份	-865
抬起头	-866
关系	-867
天赋	-868
彩鳞	-869
风暴	-870
不定	-871
苦笑	-872
......,	-873
女孩	-874
庞大	-875
若非	-876
双手	-877
无疑	-878
低沉	-879
两名	-880
根本	-881
正在	-882
起了	-883
说话	-884
动的	-885
萧玉	-886
按照	-887
浑身	-888
这话	-889
雄浑	-890
天火尊者	-891
魂天帝	-892
萧玄	-893
宗主	-894
曾经	-895
必然	-896
更加	-897
异常	-898
成了	-899
法犸	-900
掠过一抹	-901
对手	-902
就算	-903
小家伙	-904
开来	-905
的将	-906
苍老	-907
令人	-908
只见	-909
惊骇	-910
寻找	-911
不见	-912
注视下	-913
笑着点了点头	-914
吴昊	-915
全部	-916
实在是	-917
不然的话	-918
劲气	-919
正是	-920
通道	-921
巨大	-922
那名	-923
萧炎目光	-924
我的	-925
依然是	-926
也就	-927
低声	-928
蔓延	-929
的那一	-930
刚欲	-931
失败	-932
扭曲	-933
重重的	-934
地方	-935
血脉	-936
杀意	-937
感受到	-938
沉默	-939
问题	-940
让得他	-941
有种	-942
充斥着	-943
今天	-944
隐藏	-945
品炼药师	-946
开口	-947
丝毫的	-948
风尊者	-949
吐了一口气	-950
天盖	-951
了萧炎	-952
三年	-953
一条	-954
有人	-955
程度	-956
轻叹	-957
那道	-958
浮现一抹	-959
见状	-960
一脸	-961
七彩	-962
手段	-963
的速度	-964
铺天盖	-965
古元	-966
笼罩	-967
事情	-968
凌厉	-969
让得萧炎	-970
死死	-971
一位	-972
几个	-973
短短	-974
的力量	-975
不可	-976
被萧炎	-977
似是	-978
而出的	-979
经脉	-980
而进	-981
大殿	-982
行去	-983
还有着	-984
表面	-985
。“”	-986
瞥了一眼	-987
了吧	-988
城市	-989
对视	-990
爆炸	-991
微微点了点头	-992
青鳞	-993
体内斗气	-994
殿主	-995
眼神	-996
解决	-997
喃喃道	-998
的缘故	-999
威力	-1000
效果	-1001
狂暴	-1002
布满	-1003
此话	-1004
在心中	-1005
封印	-1006
毫无	-1007
狰狞	-1008
的丹药	-1009
轻轻的	-1010
落在	-1011
学员	-1012
了啊	-1013
有了	-1014
轻易	-1015
黄泉	-1016
天尊	-1017
摘星	-1018
消耗	-1019
熟悉	-1020
无数道	-1021
森林	-1022
毁灭	-1023
还真是	-1024
以为	-1025
具备	-1026
的确是	-1027
的身体	-1028
这些年	-1029
容易	-1030
希望	-1031
几人	-1032
萧炎却是	-1033
带起	-1034
萧鼎	-1035
重要	-1036
在这种	-1037
摘星老鬼	-1038
一张	-1039
这一幕	-1040
办法	-1041
山洞	-1042
爆裂	-1043
了过去	-1044
周身	-1045
哥哥	-1046
来了	-1047
萧战	-1048
突然间	-1049
多的	-1050
玉手	-1051
导师	-1052
打算	-1053
留下	-1054
的方	-1055
之上的	-1056
其体内	-1057
只不过	-1058
还不	-1059
阴冷	-1060
的对着	-1061
一处	-1062
▁不过	-1063
冰河	-1064
山峰	-1065
缭绕	-1066
震惊	-1067
但是	-1068
属性	-1069
蛇人	-1070
萧炎心中	-1071
不少人	-1072
佣兵团	-1073
居然是	-1074
兄弟	-1075
理会	-1076
着萧炎	-1077
队伍	-1078
额头	-1079
有着一些	-1080
名字	-1081
待得	-1082
磅礴	-1083
暴涨	-1084
▁目光	-1085
吞天	-1086
顺利	-1087
不用	-1088
令得他	-1089
斗皇强者	-1090
由于	-1091
银色	-1092
炎火	-1093
林修	-1094
方才能够	-1095
."	-1096
一头	-1097
她的	-1098
席卷	-1099
比起	-1100
低声道	-1101
诡异的	-1102
回去	-1103
美眸	-1104
一步	-1105
林修崖	-1106
所在	-1107
旋转	-1108
青色	-1109
三千焱	-1110
剧烈的	-1111
品丹药	-1112
手中的	-1113
持续了	-1114
不成	-1115
微皱	-1116
气氛	-1117
天妖凰	-1118
而随着	-1119
散发	-1120
两位	-1121
可却	-1122
叹息	-1123
担心	-1124
疑惑	-1125
青莲	-1126
在他	-1127
之事	-1128
的火焰	-1129
然的	-1130
不小的	-1131
原来	-1132
涌出	-1133
越加	-1134
相比	-1135
也是在	-1136
之物	-1137
新生	-1138
说过	-1139
脸庞上的	-1140
定然	-1141
还真	-1142
手掌一	-1143
的气息	-1144
的脸庞	-1145
二十	-1146
傀儡	-1147
尽头	-1148
三千焱炎火	-1149
两年	-1150
升腾	-1151
反而	-1152
小时	-1153
的一些	-1154
入了	-1155
忌惮	-1156
磐门	-1157
同样是	-1158
的时候	-1159
空气	-1160
身着	-1161
萧炎哥哥	-1162
一变	-1163
白山	-1164
此刻的	-1165
药族	-1166
快速	-1167
彻底的	-1168
斗帝	-1169
父亲	-1170
极为的	-1171
九幽	-1172
特尔	-1173
站在	-1174
霎那	-1175
▁然而	-1176
疯狂的	-1177
以后	-1178
扫了	-1179
是何	-1180
林焱	-1181
应该是	-1182
这么多年	-1183
曹颖	-1184
吞天蟒	-1185
米特尔	-1186
保持	-1187
大多	-1188
模糊	-1189
便是被	-1190
可不是	-1191
有什么	-1192
化为一道	-1193
不及	-1194
凝固	-1195
联手	-1196
微笑道	-1197
力的	-1198
此人	-1199
深吸	-1200
阻拦	-1201
那便	-1202
加上	-1203
的事情	-1204
................	-1205
前方	-1206
狼狈	-1207
皱眉	-1208
▁心中	-1209
一闪	-1210
后退	-1211
地步	-1212
汇聚	-1213
的模样	-1214
我也	-1215
第二	-1216
诧异	-1217
与萧炎	-1218
寂静	-1219
屈指	-1220
还要	-1221
身形一动	-1222
不再	-1223
借助	-1224
危险	-1225
掌心	-1226
斗灵	-1227
而那	-1228
看了一眼	-1229
叶家	-1230
族长	-1231
有点	-1232
了一会	-1233
的一声	-1234
第一次	-1235
困难	-1236
天墓	-1237
妖傀	-1238
悄悄	-1239
我会	-1240
白色	-1241
双翼	-1242
惊愕	-1243
肩膀	-1244
能力	-1245
防御	-1246
下了	-1247
冷笑道	-1248
站起身	-1249
青色火焰	-1250
一缕	-1251
属于	-1252
风雷阁	-1253
而过	-1254
凶悍	-1255
泛着	-1256
的在	-1257
不久	-1258
眨眼	-1259
一旦	-1260
世界	-1261
暴射而出	-1262
!!	-1263
取出	-1264
吸收	-1265
了不少	-1266
只见得	-1267
将目光	-1268
仿佛	-1269
小姐	-1270
气旋	-1271
翼翼	-1272
高级	-1273
缓步	-1274
小心翼翼	-1275
威压	-1276
轻声	-1277
一愣	-1278
你这	-1279
古龙	-1280
咬着	-1281
很多	-1282
炼丹	-1283
三位	-1284
不弱	-1285
选择	-1286
身体之上	-1287
而其	-1288
偏头	-1289
将这	-1290
涟漪	-1291
为何	-1292
本事	-1293
泛起	-1294
星斗圣	-1295
爆发出	-1296
的人影	-1297
达到了	-1298
天妖凰族	-1299
中年	-1300
大战	-1301
便是在	-1302
即使是	-1303
斗气大陆	-1304
处于	-1305
看看	-1306
出现了	-1307
碧绿火焰	-1308
上了	-1309
挥手	-1310
果然是	-1311
萧炎与	-1312
传来	-1313
见过	-1314
依旧是	-1315
偶尔	-1316
炎盟	-1317
扫了扫	-1318
是因为	-1319
没什么	-1320
无奈的摇了摇头	-1321
一把	-1322
喉咙	-1323
三大	-1324
半圣	-1325
萧炎也	-1326
了他	-1327
厄难	-1328
形成	-1329
微眯	-1330
透着	-1331
造成	-1332
萧炎心头	-1333
中心	-1334
话语	-1335
这道	-1336
半晌后	-1337
所需要	-1338
云棱	-1339
很是	-1340
下的	-1341
之一	-1342
交手	-1343
黑雾	-1344
抗衡	-1345
金色	-1346
间的	-1347
可怕的	-1348
森然	-1349
纳戒中	-1350
迟疑了一下	-1351
铺天盖地的	-1352
不愧	-1353
之感	-1354
各自	-1355
咬牙	-1356
而在	-1357
两种	-1358
率先	-1359
说不定	-1360
脸色也是	-1361
兴趣	-1362
本来	-1363
随意	-1364
▁当	-1365
依靠	-1366
冲击	-1367
它们	-1368
恢复	-1369
难怪	-1370
飞快	-1371
这个家伙	-1372
会被	-1373
你是	-1374
相信	-1375
震撼	-1376
厄难毒	-1377
魂殿殿主	-1378
赶忙	-1379
足有	-1380
安静的	-1381
半个	-1382
古帝	-1383
四人	-1384
回来	-1385
投向	-1386
白程	-1387
约莫	-1388
凭借	-1389
行人	-1390
表情	-1391
飞行	-1392
将萧炎	-1393
紧闭	-1394
飞掠	-1395
的恐怖	-1396
▁”	-1397
唐震	-1398
第三	-1399
生生的	-1400
的势力	-1401
的炼药师	-1402
压制	-1403
台上	-1404
唯有	-1405
尖锐	-1406
或者	-1407
的老者	-1408
不小	-1409
叶重	-1410
浩瀚	-1411
的药	-1412
金光	-1413
蕴含着	-1414
随意的	-1415
也是有些	-1416
对视了一眼	-1417
与那	-1418
两者	-1419
来到	-1420
话音	-1421
大斗师	-1422
年龄	-1423
不愧是	-1424
的话语	-1425
▁见到萧炎	-1426
不上	-1427
不同	-1428
情绪	-1429
难看	-1430
迅速的	-1431
缓缓的道	-1432
一团	-1433
大家	-1434
背影	-1435
拍了	-1436
无人	-1437
给予	-1438
翻腾	-1439
冰河谷	-1440
却并未	-1441
玄重尺	-1442
丹会	-1443
土豆	-1444
让我	-1445
进去	-1446
破风	-1447
的手掌	-1448
差距	-1449
奇异的	-1450
斗尊强者	-1451
以往	-1452
击杀	-1453
哈哈	-1454
气塔	-1455
痕迹	-1456
清儿	-1457
星斗尊	-1458
别人	-1459
成形	-1460
所蕴含	-1461
天蛇	-1462
走吧	-1463
退后	-1464
性子	-1465
收回	-1466
天焚	-1467
意料	-1468
他也是	-1469
感受着	-1470
天空之上	-1471
完美	-1472
等待	-1473
的家伙	-1474
仅仅只是	-1475
天空上的	-1476
几分	-1477
暗中	-1478
极度	-1479
让你	-1480
雷霆	-1481
对着那	-1482
细微的	-1483
这些人	-1484
站起身来	-1485
萧炎眉头	-1486
冥宗	-1487
动静	-1488
回复	-1489
坐在	-1490
好了	-1491
颜色	-1492
偏过头	-1493
坚持	-1494
头顶	-1495
导致	-1496
萧族	-1497
光柱	-1498
的身影	-1499
那家伙	-1500
我想	-1501
运转	-1502
心中的	-1503
的修炼	-1504
丈庞大的	-1505
大门	-1506
这股	-1507
拍了拍	-1508
些许	-1509
倒也	-1510
吸引	-1511
放在	-1512
红的	-1513
其他的	-1514
之气	-1515
也不会	-1516
太大的	-1517
攻势	-1518
看着	-1519
萧门	-1520
地妖傀	-1521
就犹如	-1522
黑袍人	-1523
到得	-1524
感知	-1525
欣蓝	-1526
震得	-1527
呼吸	-1528
龙王	-1529
▁瞧得	-1530
的脸色	-1531
斗破	-1532
白发	-1533
紫色	-1534
还好	-1535
炼气塔	-1536
不出	-1537
丹雷	-1538
作用	-1539
双方	-1540
味道	-1541
族人	-1542
特别	-1543
便是将	-1544
失去了	-1545
龙岛	-1546
时间的	-1547
的药材	-1548
的他	-1549
丝毫不	-1550
就在萧炎	-1551
慕骨	-1552
轰然	-1553
半空中	-1554
焚炎谷	-1555
的地步	-1556
▁伴随着	-1557
也是有着	-1558
闪过一抹	-1559
一切	-1560
外的	-1561
巨石	-1562
撞击	-1563
玄空	-1564
皱了	-1565
胸口	-1566
重伤	-1567
天焚炼气塔	-1568
足足	-1569
▁当然	-1570
却是突然	-1571
你也	-1572
到达	-1573
接近	-1574
材料	-1575
受到	-1576
平淡	-1577
总是	-1578
特殊	-1579
还未	-1580
那张	-1581
也只能	-1582
地心火	-1583
惊讶	-1584
拱手	-1585
可不	-1586
红色	-1587
再加上	-1588
的青年	-1589
,“	-1590
吸力	-1591
注意	-1592
源源	-1593
虚幻	-1594
玄空子	-1595
了去	-1596
互相	-1597
山谷	-1598
最好	-1599
清脆	-1600
血色	-1601
一时间	-1602
究竟是	-1603
一族	-1604
三种	-1605
公会	-1606
双眸	-1607
琥嘉	-1608
也是被	-1609
了过来	-1610
射而出	-1611
压抑	-1612
看似	-1613
体内的	-1614
一只	-1615
之意	-1616
寒气	-1617
惊叹	-1618
璀璨	-1619
范痨	-1620
长剑	-1621
阴寒	-1622
雾气	-1623
一般的	-1624
从中	-1625
作为	-1626
微笑	-1627
渗透	-1628
紫晶	-1629
周围的	-1630
了么	-1631
提醒	-1632
越发	-1633
飞速	-1634
发生	-1635
近乎	-1636
了将近	-1637
天火三	-1638
苦笑道	-1639
奥托	-1640
好处	-1641
抓住	-1642
吞炎	-1643
大会	-1644
如其	-1645
紫火	-1646
的攻击	-1647
令得萧炎	-1648
笑着摇了摇头	-1649
一定	-1650
也会	-1651
回过	-1652
岩枭	-1653
焚决	-1654
衣衫	-1655
身为	-1656
身子	-1657
锁链	-1658
天火三玄	-1659
咆哮	-1660
意思	-1661
挥了	-1662
药尘	-1663
眼中也是	-1664
刚好	-1665
森白	-1666
许久	-1667
然后便是	-1668
叹了一口气	-1669
压迫	-1670
阴森	-1671
道身影	-1672
魔炎谷	-1673
’’	-1674
对付	-1675
撕裂	-1676
翎泉	-1677
长枪	-1678
天火三玄变	-1679
冷漠	-1680
变故	-1681
古树	-1682
放弃	-1683
本源	-1684
淡漠	-1685
错愕	-1686
老先生	-1687
没事	-1688
灵丹	-1689
略显	-1690
简直	-1691
胸膛	-1692
若琳	-1693
已经是	-1694
纳兰桀	-1695
没有半点	-1696
虚无吞炎	-1697
一对	-1698
一年	-1699
三个	-1700
光团	-1701
其后	-1702
可惜	-1703
掩饰	-1704
死的	-1705
沙漠	-1706
血液	-1707
让他	-1708
戒指	-1709
皮肤	-1710
而上	-1711
了一点	-1712
他便是	-1713
一弹	-1714
云芝	-1715
天府	-1716
愕然	-1717
面上	-1718
拍卖场	-1719
的点了点头	-1720
到手	-1721
喜欢	-1722
普通	-1723
的那种	-1724
▁听	-1725
强的	-1726
收敛	-1727
而这	-1728
之间的	-1729
从那	-1730
伤势	-1731
其余	-1732
挣扎	-1733
看了	-1734
笑眯	-1735
古怪	-1736
坦城	-1737
目瞪	-1738
转移	-1739
阵阵	-1740
了下去	-1741
衣老者	-1742
既然如此	-1743
▁第	-1744
想象	-1745
无比	-1746
来看	-1747
涌动	-1748
范围	-1749
色的火焰	-1750
其上	-1751
区域	-1752
四处	-1753
高温	-1754
目光中	-1755
微微一变	-1756
也是越来越	-1757
口呆	-1758
寒意	-1759
乌坦城	-1760
笑眯眯	-1761
平日	-1762
惊天	-1763
认为	-1764
转头	-1765
是一种	-1766
突如其	-1767
扩散而出	-1768
的目光中	-1769
变成	-1770
毫不	-1771
一行人	-1772
之内的	-1773
天地间	-1774
无疑是	-1775
最后的	-1776
脸颊上	-1777
从纳戒中	-1778
上前	-1779
妖瞑	-1780
局面	-1781
神来	-1782
魔核	-1783
他能够	-1784
目光在	-1785
落而下	-1786
斗王强者	-1787
目光转向	-1788
若琳导师	-1789
死死的盯着	-1790
取得	-1791
多谢	-1792
对他	-1793
紧皱	-1794
黑皇	-1795
说什么	-1796
都是在	-1797
厄难毒体	-1798
从未	-1799
光是	-1800
几十	-1801
天行	-1802
条件	-1803
足够	-1804
部分	-1805
目瞪口呆	-1806
在场	-1807
是否	-1808
都会	-1809
借助着	-1810
地面上	-1811
也是逐渐的	-1812
上次	-1813
全力	-1814
大师	-1815
超过	-1816
凤清儿	-1817
都是被	-1818
这段时间	-1819
不多	-1820
便走	-1821
此事	-1822
结果	-1823
觉得	-1824
一辈	-1825
接着	-1826
门口	-1827
天时间	-1828
漆黑的	-1829
猛然一	-1830
紧紧的	-1831
萧炎在	-1832
萧炎所	-1833
源源不断的	-1834
唯一	-1835
僵硬	-1836
变幻	-1837
灰袍	-1838
简单	-1839
大小的	-1840
的灵魂力量	-1841
全身	-1842
▁在那	-1843
接下来	-1844
慕骨老人	-1845
娇躯	-1846
抱着	-1847
残影	-1848
能否	-1849
赫然	-1850
一股股	-1851
莫天行	-1852
起一抹	-1853
挥了挥手	-1854
小心翼翼的	-1855
▁那	-1856
之地	-1857
会是	-1858
低低	-1859
肯定	-1860
陀舍	-1861
非常	-1862
见到萧炎	-1863
大哥	-1864
混乱	-1865
笑意	-1866
在这片	-1867
最后一	-1868
菩提古树	-1869
下场	-1870
四周	-1871
的心	-1872
也是一	-1873
悬浮在	-1874
身旁的	-1875
▁面对着	-1876
怎么可能	-1877
苦笑了一声	-1878
了那	-1879
好奇	-1880
完成	-1881
异样	-1882
走出	-1883
身前	-1884
▁见状	-1885
后面	-1886
想起	-1887
早就	-1888
给你	-1889
韩雪	-1890
山老人	-1891
握着	-1892
收入	-1893
脑海	-1894
药老的	-1895
的那一霎	-1896
宽敞	-1897
出现的	-1898
目光的	-1899
身体上	-1900
鹜护法	-1901
陀舍古帝	-1902
上空	-1903
冷汗	-1904
怕是	-1905
接过	-1906
晋入	-1907
深的	-1908
诸位	-1909
▁就在	-1910
当真是	-1911
轻笑道	-1912
阶斗技	-1913
▁(	-1914
从其	-1915
冥蟒	-1916
完毕	-1917
杂着	-1918
突兀	-1919
表现	-1920
九幽地	-1921
异火的	-1922
意外	-1923
的是	-1924
的老	-1925
破坏	-1926
的黑袍	-1927
九幽地冥蟒	-1928
以他	-1929
惊喜	-1930
时刻	-1931
身躯	-1932
下来的	-1933
有着一	-1934
炽热的	-1935
也是能够	-1936
这些家伙	-1937
也是在此刻	-1938
各种	-1939
处的	-1940
强大	-1941
彼此	-1942
抵御	-1943
火能	-1944
的魔兽	-1945
突如其来的	-1946
亲自	-1947
吼声	-1948
它的	-1949
提炼	-1950
而成	-1951
转过	-1952
陷入	-1953
天的	-1954
狂风	-1955
结束	-1956
药方	-1957
是一名	-1958
这一刻	-1959
没有丝毫	-1960
▁被	-1961
其实	-1962
愤怒	-1963
柳翎	-1964
遮掩	-1965
笑着道	-1966
没有丝毫的	-1967
☆☆	-1968
客气	-1969
怎样	-1970
而立	-1971
里面	-1972
▁虽然	-1973
低沉的	-1974
保持着	-1975
真要	-1976
精纯	-1977
传来的	-1978
炼药术	-1979
着眉头	-1980
刚刚落下	-1981
青莲地心火	-1982
十来	-1983
惊异	-1984
已经被	-1985
飞快的	-1986
回过神来	-1987
弧度	-1988
月票	-1989
经历	-1990
脚尖	-1991
还会	-1992
了片刻	-1993
无数人	-1994
便是出现在了	-1995
与他	-1996
句话	-1997
叫声	-1998
碰撞	-1999
考核	-2000
雪白	-2001
斗之气	-2002
菩提化	-2003
也是缓缓	-2004
低头	-2005
几位	-2006
出声	-2007
加刑	-2008
打败	-2009
令得人	-2010
的战斗	-2011
萧炎便是	-2012
柔和	-2013
韩家	-2014
布满着	-2015
紧紧的盯着	-2016
深吸了一口气	-2017
上面	-2018
也能	-2019
噙着	-2020
激动	-2021
美丽	-2022
闪现	-2023
一个人	-2024
小女孩	-2025
的举动	-2026
看这	-2027
纤手	-2028
都不	-2029
加刑天	-2030
斗气的	-2031
一起	-2032
召唤	-2033
恐惧	-2034
数量	-2035
无声	-2036
规矩	-2037
黑暗	-2038
每一次	-2039
火焰的	-2040
转过头	-2041
萧炎能够	-2042
古老	-2043
嘴唇	-2044
掌控	-2045
本身	-2046
不得不	-2047
屈指一弹	-2048
坚硬	-2049
的面	-2050
绿色	-2051
闭目	-2052
也算是	-2053
在其中	-2054
年轻人	-2055
悄悄的	-2056
消失在	-2057
萧炎手掌	-2058
中央	-2059
开去	-2060
浓郁的	-2061
这一点	-2062
萧炎体内	-2063
太虚	-2064
护卫	-2065
看得	-2066
释放	-2067
也并不	-2068
否则	-2069
呆滞	-2070
向萧炎	-2071
拍卖会	-2072
天府联盟	-2073
太虚古龙	-2074
三名	-2075
可见	-2076
嘴巴	-2077
小脸	-2078
微变	-2079
虫洞	-2080
进化	-2081
仅仅是	-2082
星斗宗	-2083
涌上一抹	-2084
充满	-2085
反应	-2086
外界	-2087
失望	-2088
尴尬	-2089
极端	-2090
狂喜	-2091
生生	-2092
细的	-2093
骨翼	-2094
也不敢	-2095
的少年	-2096
淡淡一笑	-2097
停止	-2098
好几	-2099
指尖	-2100
操控	-2101
森冷	-2102
置信	-2103
谨慎	-2104
两人的	-2105
也就是	-2106
徐徐的	-2107
▁将	-2108
族中	-2109
在了一	-2110
菩提化体	-2111
萧炎这才	-2112
这种时候	-2113
不起	-2114
出的	-2115
实的	-2116
支持	-2117
本体	-2118
目的	-2119
答应	-2120
追杀	-2121
感应到	-2122
掌心中	-2123
的长老	-2124
也是令得	-2125
应该便是	-2126
会有	-2127
始终	-2128
实质	-2129
少爷	-2130
毒宗	-2131
莫名	-2132
的黑色	-2133
能够在	-2134
什么东西	-2135
抬起头来	-2136
时的	-2137
试试	-2138
这番	-2139
三千雷	-2140
为什么	-2141
强者的	-2142
上一	-2143
不太	-2144
大地	-2145
对面	-2146
帮助	-2147
强榜	-2148
径直	-2149
遥遥	-2150
凝聚成	-2151
加列毕	-2152
广场上	-2153
细小的	-2154
便是直接	-2155
笑了一声	-2156
菩提化体涎	-2157
一落	-2158
一颤	-2159
她们	-2160
当日	-2161
赤红	-2162
鬼魅	-2163
黛眉	-2164
▁手掌	-2165
在内院	-2166
与之	-2167
了个	-2168
内部	-2169
噗嗤	-2170
我来	-2171
抽搐	-2172
日光	-2173
现身	-2174
自动	-2175
那被	-2176
也不是	-2177
传说	-2178
吟吟	-2179
外面	-2180
多久	-2181
徽章	-2182
相同	-2183
眼角	-2184
闭关	-2185
清楚的	-2186
浮现而出	-2187
都是有些	-2188
人群	-2189
名头	-2190
告诉	-2191
收拾	-2192
粉末	-2193
那对	-2194
韩月	-2195
▁药老	-2196
开始了	-2197
皱了皱	-2198
这老家伙	-2199
后来	-2200
料到	-2201
混蛋	-2202
的天	-2203
经验	-2204
骇然	-2205
似乎是	-2206
年时间	-2207
没有了	-2208
注视着	-2209
旋即一道	-2210
一路	-2211
底的	-2212
开启	-2213
房门	-2214
方向	-2215
疗伤	-2216
的主	-2217
天妖傀	-2218
的消息	-2219
加列家族	-2220
那所谓的	-2221
不想	-2222
撇嘴	-2223
灌注	-2224
罗布	-2225
紧接着	-2226
让得人	-2227
弥漫而出	-2228
米特尔家族	-2229
一样	-2230
他是	-2231
复杂	-2232
离去	-2233
街道	-2234
身来	-2235
不过好	-2236
能够将	-2237
这小子	-2238
▁天空上	-2239
响彻而起	-2240
自然也是	-2241
名声	-2242
就得	-2243
尸体	-2244
很难	-2245
排名	-2246
斗者	-2247
蠕动	-2248
这事	-2249
了一种	-2250
魔老鬼	-2251
。。	-2252
冠军	-2253
回荡	-2254
坐于	-2255
才能	-2256
盘旋	-2257
穿梭	-2258
立在	-2259
老祖	-2260
血红	-2261
阳光	-2262
就如同	-2263
的异火	-2264
一口鲜血	-2265
后方	-2266
废话	-2267
死亡	-2268
的巨	-2269
种族	-2270
精神	-2271
被人	-2272
锋利	-2273
瞬间便是	-2274
交易	-2275
使得	-2276
几道	-2277
参加	-2278
名为	-2279
呼啸	-2280
嗤嗤	-2281
怒火	-2282
比试	-2283
琉璃	-2284
诱惑	-2285
中年人	-2286
显然是	-2287
刺眼	-2288
叫做	-2289
周遭	-2290
声势	-2291
大阵	-2292
等等	-2293
谁都	-2294
路线	-2295
长长的	-2296
▁听得萧炎	-2297
休息	-2298
暴怒	-2299
火热	-2300
目标	-2301
▁第一	-2302
夹杂着	-2303
狠狠一	-2304
这么多	-2305
赫然便是	-2306
你能	-2307
天啸	-2308
姚盛	-2309
威胁	-2310
正好	-2311
沈云	-2312
红唇	-2313
花宗	-2314
麻麻	-2315
以一种	-2316
蛇人族	-2317
都将会	-2318
雷尊者	-2319
双掌	-2320
太多	-2321
废物	-2322
紧绷	-2323
他知道	-2324
密麻麻	-2325
身后的	-2326
从纳戒中取出	-2327
凄厉	-2328
巴掌	-2329
把握	-2330
抵达	-2331
武器	-2332
清晰	-2333
自语	-2334
黑衣	-2335
了一道	-2336
密密麻麻	-2337
暴掠而去	-2338
▁萧炎目光	-2339
七品	-2340
与此	-2341
了解	-2342
信心	-2343
冰寒	-2344
凭空	-2345
男人	-2346
类似	-2347
诸多	-2348
走进	-2349
轰隆	-2350
这场	-2351
不过这	-2352
他却是	-2353
笑吟吟	-2354
兴奋	-2355
前辈	-2356
哪里	-2357
赶紧	-2358
其身体	-2359
散发着	-2360
一身	-2361
冷哼	-2362
情报	-2363
望去	-2364
眉心	-2365
跟着	-2366
骨灵	-2367
大厅中	-2368
并不是	-2369
的存在	-2370
都是能够	-2371
不好	-2372
但这	-2373
光泽	-2374
决定	-2375
听见	-2376
基本	-2377
据说	-2378
盘腿	-2379
萧宁	-2380
这边	-2381
雷鸣	-2382
闪掠而出	-2383
三十	-2384
减弱	-2385
加快	-2386
大人	-2387
将他	-2388
才是	-2389
暴退	-2390
杀了	-2391
欣喜	-2392
称为	-2393
等着	-2394
覆盖	-2395
轻松	-2396
还没	-2397
音波	-2398
了上去	-2399
的斗技	-2400
斗圣强者	-2401
一扫	-2402
内的	-2403
冷火	-2404
动身	-2405
成就	-2406
有过	-2407
秘法	-2408
修炼室	-2409
听说过	-2410
那便是	-2411
面色也是	-2412
但那	-2413
勉强	-2414
怀中	-2415
拼命	-2416
无尽	-2417
略作	-2418
白衣	-2419
神色	-2420
耳边	-2421
通体	-2422
一口气	-2423
在他们	-2424
这便是	-2425
这里的	-2426
与此同时	-2427
魔兽山脉	-2428
了萧炎一眼	-2429
与其	-2430
人类	-2431
公主	-2432
嚣张	-2433
大汉	-2434
妖圣	-2435
帮忙	-2436
正常	-2437
流淌	-2438
进行	-2439
重的	-2440
了出去	-2441
的笑道	-2442
若非是	-2443
望着萧炎	-2444
了两	-2445
何种	-2446
保护	-2447
影子	-2448
得罪	-2449
打破	-2450
让的	-2451
最后在	-2452
真的是	-2453
目光的注视下	-2454
之法	-2455
刚才	-2456
对你	-2457
干枯	-2458
心的	-2459
相助	-2460
纠缠	-2461
视着	-2462
认识	-2463
面相	-2464
以他的	-2465
先前那	-2466
地魔老鬼	-2467
一皱	-2468
为之	-2469
了点	-2470
冰凉	-2471
出乎	-2472
我所	-2473
拒绝	-2474
最近	-2475
比赛	-2476
灰烬	-2477
猜测	-2478
行走	-2479
魂崖	-2480
明显是	-2481
的脸庞上	-2482
等人也是	-2483
鹰山老人	-2484
二老	-2485
价格	-2486
很少	-2487
玄阶	-2488
皇室	-2489
其他人	-2490
的一处	-2491
越发的	-2492
都是会	-2493
天空上那	-2494
萧炎身体	-2495
都是未曾	-2496
骨灵冷火	-2497
九幽地冥蟒族	-2498
几名	-2499
慕兰	-2500
挑战	-2501
了什么	-2502
是何等	-2503
破风声	-2504
吸了一口	-2505
没有什么	-2506
他在	-2507
伸出	-2508
抱拳	-2509
损失	-2510
看去	-2511
移动	-2512
费天	-2513
对于这	-2514
光圈	-2515
好的	-2516
小伊	-2517
恭敬	-2518
老头	-2519
而坐	-2520
闪动	-2521
骨骸	-2522
."”	-2523
沉吟道	-2524
的层次	-2525
所蕴含的	-2526
凶兽	-2527
努力	-2528
容貌	-2529
看出	-2530
种种	-2531
若现	-2532
蓝色	-2533
那等	-2534
▁这种	-2535
九天尊	-2536
先前的	-2537
比不上	-2538
有着不少	-2539
伤害	-2540
啧啧	-2541
对其	-2542
引起	-2543
摊了	-2544
若隐	-2545
被他	-2546
说了	-2547
领头	-2548
魂玉	-2549
对萧炎	-2550
铁护法	-2551
若是能够	-2552
,"	-2553
一番	-2554
各位	-2555
地心	-2556
太大	-2557
摊手	-2558
柳眉	-2559
洪辰	-2560
消炎	-2561
萧晨	-2562
通过	-2563
铁青	-2564
天地能量	-2565
手掌一挥	-2566
眉头微皱	-2567
若隐若现	-2568
萧炎笑了笑	-2569
轻叹了一口气	-2570
快步	-2571
石碑	-2572
跟上	-2573
躲避	-2574
的男子	-2575
的霎那	-2576
自其体内	-2577
一振	-2578
动作	-2579
古妖	-2580
拱了	-2581
流光	-2582
烛离	-2583
红润	-2584
豁然	-2585
反而是	-2586
相当的	-2587
♀♀	-2588
一块	-2589
一来	-2590
佛怒	-2591
前来	-2592
唾沫	-2593
墨家	-2594
摆了	-2595
火灵	-2596
眸中	-2597
苏醒	-2598
逃窜	-2599
金石	-2600
骨骼	-2601
了一番	-2602
摊了摊手	-2603
炼药师公会	-2604
-,	-2605
击败	-2606
占据	-2607
寒芒	-2608
山顶	-2609
摆手	-2610
穆蛇	-2611
统领	-2612
要塞	-2613
轰击	-2614
随时	-2615
的身形	-2616
暴掠而出	-2617
所有人都是	-2618
三道	-2619
便能	-2620
包围	-2621
匹练	-2622
印记	-2623
嘶哑	-2624
惊诧	-2625
流转	-2626
自从	-2627
说着	-2628
驱逐	-2629
黑擎	-2630
停留在	-2631
不远处的	-2632
也并非是	-2633
一击	-2634
一拳	-2635
乌云	-2636
倩影	-2637
地图	-2638
抱歉	-2639
本就	-2640
潜力	-2641
罕见	-2642
血潭	-2643
遥远	-2644
顶尖	-2645
▁薰儿	-2646
得有些	-2647
特别是	-2648
若是有	-2649
莲心火	-2650
拱了拱手	-2651
灵魂感知	-2652
任由	-2653
嘲讽	-2654
掠出	-2655
掠去	-2656
老生	-2657
说是	-2658
躯体	-2659
青阳	-2660
他心中	-2661
弥漫着	-2662
猛然间	-2663
对于萧炎	-2664
年轻一辈	-2665
袖袍一挥	-2666
参赛	-2667
当场	-2668
撇了	-2669
要求	-2670
北龙王	-2671
在中州	-2672
彻彻底	-2673
药鼎之内	-2674
中级	-2675
何况	-2676
倾洒	-2677
全场	-2678
划过	-2679
就能	-2680
差点	-2681
白眼	-2682
的从	-2683
语气	-2684
银芒	-2685
龙兽	-2686
任何人	-2687
的声响	-2688
广场之上	-2689
药鼎之中	-2690
蔓延而出	-2691
乃是	-2692
五人	-2693
喷出	-2694
最终	-2695
月媚	-2696
韩闲	-2697
在那里	-2698
战斗力	-2699
极大的	-2700
火长老	-2701
竟然还	-2702
一道道目光	-2703
▁瞧	-2704
不对	-2705
不着	-2706
不论	-2707
挥动	-2708
摸了	-2709
暗自	-2710
毒斑	-2711
略感	-2712
而当	-2713
虚弱	-2714
顷刻	-2715
骨幽	-2716
强大的	-2717
轰隆隆	-2718
黑皇宗	-2719
佛怒火莲	-2720
却是见到	-2721
在黑角域	-2722
摆了摆手	-2723
渗透而出	-2724
都是在此刻	-2725
不动	-2726
叹道	-2727
对我	-2728
展现	-2729
散去	-2730
生机	-2731
这两	-2732
咬着牙	-2733
如此之	-2734
更何况	-2735
深深的	-2736
不管如何	-2737
炼制丹药	-2738
萧炎倒是	-2739
都是有着	-2740
一座	-2741
丫头	-2742
出云	-2743
在我	-2744
忘记	-2745
想来	-2746
敬畏	-2747
洪家	-2748
灰色	-2749
西北	-2750
进来	-2751
迟早	-2752
随手	-2753
?!”	-2754
古青阳	-2755
声喝道	-2756
我们的	-2757
若是再	-2758
在了一起	-2759
片刻之后	-2760
隐隐有着	-2761
的摇了摇头	-2762
一掌	-2763
与你	-2764
二哥	-2765
代价	-2766
低级	-2767
前面	-2768
回到	-2769
大半	-2770
打量	-2771
群人	-2772
边缘	-2773
飘飘	-2774
▁这般	-2775
凭借着	-2776
完全的	-2777
小小的	-2778
根本就	-2779
此时的	-2780
的发现	-2781
闪烁着	-2782
面面相	-2783
也不知道	-2784
自然便是	-2785
虚无空间	-2786
不甘	-2787
性的	-2788
流逝	-2789
窃窃	-2790
说完	-2791
走了	-2792
那我	-2793
青鸾	-2794
也并未	-2795
其中的	-2796
声音中	-2797
尖锐的	-2798
干什么	-2799
必然会	-2800
的出现	-2801
陷入了	-2802
紫色火焰	-2803
在加玛帝国	-2804
轻吐了一口气	-2805
尚还	-2806
开了	-2807
方言	-2808
炸响	-2809
遗迹	-2810
随便	-2811
然后在	-2812
的可怕	-2813
轻易的	-2814
阶魔兽	-2815
现在的他	-2816
这片天地	-2817
他所	-2818
族纹	-2819
无视	-2820
熏儿	-2821
稍稍	-2822
膨胀	-2823
行出	-2824
阻碍	-2825
▁话音	-2826
的方向	-2827
石台上	-2828
魔毒斑	-2829
萧炎脸色	-2830
难以掩饰	-2831
了耸	-2832
他与	-2833
传承	-2834
倒飞	-2835
大变	-2836
成员	-2837
打击	-2838
拿出	-2839
着这	-2840
说道	-2841
那从	-2842
一些人	-2843
摸了摸	-2844
放心吧	-2845
的对手	-2846
的背影	-2847
窃窃私	-2848
顷刻间	-2849
出云帝国	-2850
旋即目光	-2851
侵蚀	-2852
便可	-2853
分身	-2854
咔嚓	-2855
子的	-2856
射出	-2857
将你	-2858
心脏	-2859
拦住	-2860
玉盒	-2861
眼光	-2862
穿过	-2863
算了	-2864
翻了	-2865
茶杯	-2866
连他	-2867
眨眼间	-2868
▁感受着	-2869
也是变得	-2870
窃窃私语	-2871
不安	-2872
凄惨	-2873
吐出	-2874
地位	-2875
大小	-2876
帝都	-2877
待会	-2878
得上	-2879
怨毒	-2880
有何	-2881
满意	-2882
火海	-2883
的冲	-2884
眼力	-2885
被其	-2886
他倒是	-2887
眼中的	-2888
耸了耸	-2889
这种事	-2890
微微一皱	-2891
让得他们	-2892
一顿	-2893
下巴	-2894
大手	-2895
帐篷	-2896
整片	-2897
澎湃	-2898
琥乾	-2899
砸在	-2900
黯淡	-2901
也只得	-2902
寻常人	-2903
能量的	-2904
进入了	-2905
▁第一千	-2906
便是对着	-2907
难以置信	-2908
一转	-2909
在此	-2910
夭夜	-2911
好运	-2912
尽量	-2913
年纪	-2914
是我	-2915
有多	-2916
沙铁	-2917
的战	-2918
翻滚	-2919
联军	-2920
见面	-2921
那也	-2922
锁定	-2923
也是会	-2924
很多人	-2925
成为了	-2926
旋即便是	-2927
面面相觑	-2928
’,	-2929
之辈	-2930
代表	-2931
冷喝	-2932
凉气	-2933
动了	-2934
席位	-2935
快若	-2936
惨白	-2937
暴冲	-2938
获得	-2939
角落	-2940
闭上	-2941
交给我	-2942
的味道	-2943
的巨大	-2944
的笑容	-2945
也是迅速	-2946
大多都是	-2947
一分	-2948
与人	-2949
几日	-2950
升起	-2951
安全	-2952
服用	-2953
记得	-2954
那在	-2955
那是	-2956
钻进	-2957
不会再	-2958
了一抹	-2959
原来是	-2960
快速的	-2961
而且还	-2962
若是不	-2963
微微一怔	-2964
无形火焰	-2965
萧炎面前	-2966
身形一闪	-2967
▁就在萧炎	-2968
交给	-2969
动人	-2970
命令	-2971
岁月	-2972
常人	-2973
戏谑	-2974
的最	-2975
粘稠	-2976
耳中	-2977
踏着	-2978
银牙	-2979
半晌之后	-2980
瞟了一眼	-2981
了一口唾沫	-2982
狠狠的对着	-2983
也是忍不住的	-2984
何时	-2985
加入	-2986
小友	-2987
摸着	-2988
沿途	-2989
狮王	-2990
盟主	-2991
细小	-2992
绚丽	-2993
而退	-2994
透过	-2995
金币	-2996
雷云	-2997
慕青鸾	-2998
看起来	-2999
顿时一	-3000
冲着萧炎	-3001
有些不太	-3002
爆裂而开	-3003
耸了耸肩	-3004
不屑	-3005
声望	-3006
平原	-3007
床榻	-3008
成熟	-3009
焚烧	-3010
紧张	-3011
红衣	-3012
赶路	-3013
都要	-3014
东龙岛	-3015
低低的	-3016
目光扫	-3017
什么时候	-3018
周围那些	-3019
萧炎一怔	-3020
这般模样	-3021
▁‘	-3022
一一	-3023
但也	-3024
回合	-3025
城墙	-3026
学长	-3027
接受	-3028
放眼	-3029
曹家	-3030
极强	-3031
范凌	-3032
荡荡	-3033
这点	-3034
都能	-3035
阵容	-3036
龙凰	-3037
倒也是	-3038
天冥宗	-3039
差不多	-3040
也终于是	-3041
却依然是	-3042
手掌一握	-3043
无奈的道	-3044
空间虫洞	-3045
在萧炎身上	-3046
或许是因为	-3047
出口	-3048
劲力	-3049
嘀咕	-3050
对了	-3051
棘手	-3052
水晶	-3053
漫天	-3054
烛坤	-3055
粉红	-3056
自其	-3057
开口道	-3058
灵魂体	-3059
紫晶翼	-3060
撇了撇嘴	-3061
万蝎	-3062
主意	-3063
光幕	-3064
前十	-3065
大涨	-3066
大笑	-3067
得意	-3068
打扰	-3069
熊战	-3070
直到	-3071
老怪	-3072
脱离	-3073
茫然	-3074
萧潇	-3075
闷响	-3076
在此处	-3077
怎么办	-3078
所有的	-3079
携带着	-3080
最大的	-3081
月时间	-3082
的问道	-3083
翻了翻	-3084
弥漫而开	-3085
空间裂缝	-3086
身形便是	-3087
琉璃莲心火	-3088
”’	-3089
停滞	-3090
像是	-3091
击中	-3092
对待	-3093
惊呼	-3094
步伐	-3095
生死	-3096
着头	-3097
贪婪	-3098
阁主	-3099
震慑	-3100
一丝丝	-3101
了开去	-3102
修炼的	-3103
加列奥	-3104
我倒是	-3105
的位置	-3106
说起来	-3107
紫晶翼狮王	-3108
轻叹了一声	-3109
咽了一口唾沫	-3110
下一	-3111
争夺	-3112
优秀	-3113
削瘦	-3114
印结	-3115
原因	-3116
吩咐	-3117
有关	-3118
柔软	-3119
真实	-3120
苦涩	-3121
被那	-3122
身边	-3123
附近	-3124
顶多	-3125
了开来	-3126
声响起	-3127
疗伤药	-3128
的身份	-3129
三位长老	-3130
纳戒之中	-3131
将目光投向	-3132
的望着萧炎	-3133
▁突如其来的	-3134
一圈	-3135
不休	-3136
凰天	-3137
制造	-3138
后背	-3139
引来	-3140
找到	-3141
插手	-3142
数百	-3143
瞥了	-3144
胡乱	-3145
脖子	-3146
虚子	-3147
说来	-3148
走到	-3149
踏出	-3150
辰闲	-3151
这座	-3152
那就	-3153
陌生	-3154
从萧炎	-3155
出现时	-3156
并不能	-3157
星斗皇	-3158
皆是一	-3159
这两个	-3160
云岚宗的	-3161
脸庞之上	-3162
云岚宗弟子	-3163
眼中掠过一抹	-3164
▁......	-3165
上来	-3166
倒霉	-3167
坐下	-3168
天才	-3169
怀疑	-3170
暂时	-3171
极致	-3172
清秀	-3173
灵智	-3174
烈的	-3175
给他	-3176
运气	-3177
那样	-3178
震动	-3179
面无	-3180
首次	-3181
骚动	-3182
骨头	-3183
并不会	-3184
紧闭的	-3185
起来的	-3186
三千雷动	-3187
也就是说	-3188
修炼状态	-3189
喝声落下	-3190
最后化为	-3191
萧炎嘴角	-3192
▁见到这一幕	-3193
▁萧炎微微点头	-3194
也有	-3195
仔细	-3196
双脚	-3197
口气	-3198
可比	-3199
妮子	-3200
晶卡	-3201
紫云	-3202
血腥	-3203
霸道	-3204
了一句	-3205
你若是	-3206
就在其	-3207
怎么样	-3208
过来的	-3209
暴射而去	-3210
没想到这	-3211
面无表情	-3212
的黑袍青年	-3213
便走出现在了	-3214
付出	-3215
凌影	-3216
地道	-3217
探测	-3218
树干	-3219
漩涡	-3220
热闹	-3221
结局	-3222
脸上	-3223
血迹	-3224
讥讽	-3225
记忆	-3226
下方的	-3227
与他们	-3228
也知道	-3229
的新生	-3230
的那位	-3231
竟然会	-3232
他自然是	-3233
白发老者	-3234
盯着萧炎	-3235
萧炎的目光	-3236
太虚古龙一族	-3237
也要	-3238
五十	-3239
利马	-3240
反正	-3241
宝贝	-3242
帮你	-3243
投射	-3244
拖延	-3245
提起	-3246
支撑	-3247
正面	-3248
美人	-3249
铠甲	-3250
青红	-3251
万蝎门	-3252
因此而	-3253
成了一	-3254
甚至是	-3255
皱眉道	-3256
紧握着	-3257
该死的	-3258
青灵丹	-3259
都是变得	-3260
苦笑着摇了摇头	-3261
下面	-3262
与我	-3263
也好	-3264
交锋	-3265
剧痛	-3266
古玉	-3267
急促	-3268
火龙	-3269
灵液	-3270
王尘	-3271
小公主	-3272
瞬间后	-3273
这一霎	-3274
颇为的	-3275
魂殿的	-3276
▁小医仙	-3277
不知为何	-3278
也不可能	-3279
响了起来	-3280
方才缓缓	-3281
仅有	-3282
他能	-3283
任务	-3284
你可	-3285
侍女	-3286
办到	-3287
天山	-3288
的落	-3289
算做	-3290
还在	-3291
多大的	-3292
大部分	-3293
小兄弟	-3294
不过好在	-3295
升腾而起	-3296
彻彻底底的	-3297
一方	-3298
一踏	-3299
丝丝	-3300
侥幸	-3301
地上	-3302
地域	-3303
坊市	-3304
底牌	-3305
燃烧	-3306
犹豫	-3307
的冰	-3308
稚嫩	-3309
缓慢	-3310
首领	-3311
一阵阵	-3312
修长的	-3313
在这个	-3314
成功率	-3315
是一个	-3316
的地位	-3317
远处的	-3318
两道身影	-3319
冷笑一声	-3320
消失不见	-3321
叹息了一声	-3322
何等	-3323
你要	-3324
半年	-3325
境界	-3326
天魔	-3327
急退	-3328
怪异	-3329
抹去	-3330
残留	-3331
淬炼	-3332
的风	-3333
那片	-3334
靠着	-3335
你应该	-3336
弥漫的	-3337
极其的	-3338
而在这	-3339
魂虚子	-3340
却是忽然	-3341
的青色火焰	-3342
萧炎不由得	-3343
守护	-3344
封锁	-3345
明的	-3346
曹单	-3347
比较	-3348
配合	-3349
首位	-3350
也不用	-3351
微眯着	-3352
这可是	-3353
便是再度	-3354
闪现而出	-3355
的盯着萧炎	-3356
!“	-3357
妩媚	-3358
性命	-3359
期间	-3360
洞府	-3361
测验	-3362
百米	-3363
这幅	-3364
▁而在	-3365
参赛者	-3366
感受着那	-3367
露出一抹	-3368
的能量波动	-3369
也没	-3370
仰天	-3371
反抗	-3372
宋清	-3373
当做	-3374
破碎	-3375
胜利	-3376
闪避	-3377
阴影	-3378
不错的	-3379
在他的	-3380
异火榜	-3381
格外的	-3382
淡笑道	-3383
若不是	-3384
这一步	-3385
不着痕迹	-3386
也是逐渐	-3387
心中也是	-3388
身体表面	-3389
体内暴涌而出	-3390
不低	-3391
兰克	-3392
关注	-3393
出一	-3394
历练	-3395
厉喝	-3396
受伤	-3397
可就	-3398
咬了	-3399
得不	-3400
火浪	-3401
用来	-3402
肉眼	-3403
药力	-3404
萧媚	-3405
谢谢	-3406
不过却	-3407
之外的	-3408
了进去	-3409
弗兰克	-3410
眼瞳中	-3411
等待着	-3412
紫云翼	-3413
这次的	-3414
重要的	-3415
目光望向	-3416
如今的实力	-3417
实在是太过	-3418
不已	-3419
声波	-3420
失踪	-3421
微蹙	-3422
打开	-3423
无匹	-3424
未能	-3425
火蟒	-3426
相撞	-3427
空洞	-3428
艰难	-3429
这枚	-3430
魂厉	-3431
当年的	-3432
忽然间	-3433
接触到	-3434
眉心处	-3435
算不得	-3436
袍老者	-3437
远远的	-3438
便是有着	-3439
房间之中	-3440
所有人的	-3441
萧炎脸庞上	-3442
▁萧炎笑了笑	-3443
▁从	-3444
一握	-3445
也太	-3446
价值	-3447
先是	-3448
宗门	-3449
恩怨	-3450
某种	-3451
柳席	-3452
椅子	-3453
气质	-3454
永远	-3455
满场	-3456
潮水	-3457
熊熊	-3458
看你	-3459
着一	-3460
穆力	-3461
身法	-3462
道道	-3463
▁站在	-3464
一个个	-3465
不过在	-3466
实力的	-3467
岂不是	-3468
相当之	-3469
自其中	-3470
还不待	-3471
以萧炎的	-3472
直接是将	-3473
雄浑斗气	-3474
难以掩饰的	-3475
下手	-3476
主动	-3477
培养	-3478
摊开	-3479
明天	-3480
某一	-3481
缠绕	-3482
罢了	-3483
衣袍	-3484
雏丹	-3485
青火	-3486
高的	-3487
以萧炎	-3488
便是得	-3489
轻飘飘	-3490
翻了翻白眼	-3491
萧炎微微一笑	-3492
一惊	-3493
了舔	-3494
冷冷	-3495
好好	-3496
所幸	-3497
欣慰	-3498
状况	-3499
砰砰	-3500
结出	-3501
老妖	-3502
谷主	-3503
隐约	-3504
与薰儿	-3505
了一圈	-3506
凄厉的	-3507
变成了	-3508
星斗者	-3509
的女子	-3510
萧炎将	-3511
便是化为	-3512
涌现一抹	-3513
黑袍青年	-3514
冷笑了一声	-3515
以来	-3516
几年	-3517
对碰	-3518
惊雷	-3519
收获	-3520
放过	-3521
知晓	-3522
精血	-3523
紫褐	-3524
超越	-3525
逊色	-3526
一个不	-3527
却是在	-3528
强悍的	-3529
方才是	-3530
是一片	-3531
的血脉	-3532
的那股	-3533
舔了舔	-3534
一道身影	-3535
抬头望着	-3536
萧炎有些	-3537
现在的萧炎	-3538
住了	-3539
体积	-3540
信息	-3541
先祖	-3542
加老	-3543
咧嘴	-3544
四面	-3545
团长	-3546
在你	-3547
墨承	-3548
小觑	-3549
心动	-3550
怒吼	-3551
无可	-3552
昏迷	-3553
毒蛇	-3554
毕岩	-3555
石门	-3556
缩小	-3557
规模	-3558
跳动	-3559
难度	-3560
默默	-3561
分钟后	-3562
大陆上	-3563
客气的	-3564
将他们	-3565
感兴趣	-3566
的有些	-3567
让他们	-3568
包裹而进	-3569
半个小时	-3570
接下来的	-3571
陀舍古帝玉	-3572
,’	-3573
三色	-3574
九品	-3575
侵入	-3576
巨龙	-3577
影响	-3578
我是	-3579
打着	-3580
承受	-3581
望了	-3582
汹涌	-3583
灰紫	-3584
生物	-3585
痛苦	-3586
超级	-3587
这人	-3588
首发	-3589
黑炎	-3590
的机会	-3591
的气氛	-3592
的波动	-3593
七彩吞天蟒	-3594
低声喃喃道	-3595
无数道目光	-3596
丹城	-3597
之余	-3598
停下	-3599
双臂	-3600
右手	-3601
失去	-3602
微闭	-3603
接连	-3604
有的	-3605
沉睡	-3606
湖泊	-3607
眨了	-3608
确定	-3609
高台	-3610
▁在这	-3611
因为他	-3612
在了那	-3613
总算是	-3614
一声冷笑	-3615
心神一动	-3616
有丝毫的	-3617
脑海之中	-3618
脸庞上的笑容	-3619
刺耳	-3620
嘎吱	-3621
强上	-3622
搞得	-3623
晋级	-3624
本王	-3625
毒气	-3626
比他	-3627
火红	-3628
然大	-3629
生命	-3630
精致	-3631
说到	-3632
谈话	-3633
踏入	-3634
选拔	-3635
仅仅只	-3636
得到了	-3637
的那般	-3638
而萧炎	-3639
郝长老	-3640
却是犹如	-3641
铺天盖地	-3642
一挑	-3643
产生	-3644
你了	-3645
印决	-3646
妖花	-3647
媲美	-3648
学生	-3649
我就	-3650
柳菲	-3651
炎利	-3652
的深	-3653
自爆	-3654
辽阔	-3655
迹象	-3656
院长	-3657
三人的	-3658
了一把	-3659
二长老	-3660
的人群	-3661
的效果	-3662
神秘的	-3663
也是陡然	-3664
萧炎方才	-3665
这一次的	-3666
一大	-3667
光罩	-3668
头疼	-3669
态度	-3670
愣了	-3671
日子	-3672
暴露	-3673
涨红	-3674
火山	-3675
紧随	-3676
缝隙	-3677
警惕	-3678
轰出	-3679
轰轰	-3680
退出	-3681
魂魔	-3682
在天际	-3683
完美的	-3684
对自己	-3685
惊人的	-3686
是什么	-3687
有资格	-3688
清晰的	-3689
的情况	-3690
的脸颊	-3691
短时间	-3692
顿时间	-3693
高台上	-3694
一段时间	-3695
想到此处	-3696
纳兰家族	-3697
而伴随着	-3698
这种地步	-3699
一天	-3700
万归	-3701
不行	-3702
不足	-3703
光影	-3704
妖娆	-3705
小嘴	-3706
很强	-3707
扫视	-3708
抗拒	-3709
漠铁	-3710
稳住	-3711
袍服	-3712
见识	-3713
邪君	-3714
居然还	-3715
惊天动	-3716
璀璨的	-3717
的变化	-3718
见到那	-3719
在其身后	-3720
妖花邪君	-3721
席卷而出	-3722
眼眸微眯	-3723
那巨大的	-3724
万一	-3725
丹堂	-3726
也正	-3727
凶猛	-3728
分散	-3729
卡岗	-3730
反射	-3731
四名	-3732
在下	-3733
地底	-3734
天目	-3735
找死	-3736
木铁	-3737
火苗	-3738
珍稀	-3739
经常	-3740
脸皮	-3741
花费	-3742
蝎子	-3743
蝎山	-3744
贵宾	-3745
远非	-3746
▁一旁	-3747
也将会	-3748
众人的	-3749
在一处	-3750
此次的	-3751
没事吧	-3752
的资格	-3753
离开了	-3754
种异火	-3755
蝎毕岩	-3756
没有任何	-3757
那老家伙	-3758
都是无法	-3759
鬼魅般的	-3760
密密麻麻的	-3761
——	-3762
人流	-3763
划破	-3764
原地	-3765
场地	-3766
垂涎	-3767
弱的	-3768
心思	-3769
振动	-3770
沉寂	-3771
破裂	-3772
韩冲	-3773
▁身体	-3774
。”“	-3775
叹息道	-3776
对于他	-3777
我知道	-3778
既然你	-3779
有丝毫	-3780
的意思	-3781
那么便	-3782
都不是	-3783
▁一旁的	-3784
有着一种	-3785
转身对着	-3786
这般举动	-3787
.”	-3788
但他	-3789
使劲	-3790
愿意	-3791
我便	-3792
我能	-3793
无语	-3794
木战	-3795
木桩	-3796
树枝	-3797
死寂	-3798
激烈	-3799
灰尘	-3800
狼头	-3801
连那	-3802
那副	-3803
那团	-3804
雪魅	-3805
动人的	-3806
圣丹城	-3807
第三更	-3808
紫晶源	-3809
▁萧炎的	-3810
叹了一声	-3811
岩浆世界	-3812
段斗之气	-3813
简直就是	-3814
这些东西	-3815
▁萧炎的目光	-3816
一卷	-3817
乃至	-3818
低喝	-3819
力道	-3820
包括	-3821
北城	-3822
听说	-3823
在意	-3824
妈的	-3825
对这	-3826
星界	-3827
极限	-3828
椅上	-3829
滔天	-3830
狠辣	-3831
看向	-3832
说得	-3833
购买	-3834
靠近	-3835
▁听着	-3836
了几分	-3837
森林中	-3838
若是被	-3839
萧炎轻	-3840
九幽黄泉	-3841
从其体内	-3842
听得萧炎	-3843
居然便是	-3844
略微沉吟	-3845
纹青灵丹	-3846
萧炎手中	-3847
灵魂感知力	-3848
一柄	-3849
下次	-3850
了你	-3851
修复	-3852
修行	-3853
地带	-3854
好吧	-3855
对此	-3856
敏锐	-3857
桀桀	-3858
疼痛	-3859
的前	-3860
直直	-3861
瞧见	-3862
美目	-3863
莫崖	-3864
葱郁	-3865
这条	-3866
预料	-3867
场中的	-3868
清脆的	-3869
之后不久	-3870
也是再度	-3871
便是陡然	-3872
所需要的	-3873
这片空间	-3874
阶别的强者	-3875
两股	-3876
亲眼	-3877
你还	-3878
匹敌	-3879
千年	-3880
压力	-3881
古朴	-3882
声中	-3883
天毒	-3884
太久	-3885
延伸	-3886
惊恐	-3887
成长	-3888
每次	-3889
测试	-3890
海老	-3891
腾山	-3892
自主	-3893
裂开	-3894
黄色	-3895
但如今	-3896
吸引力	-3897
将那些	-3898
惨叫声	-3899
日时间	-3900
的佣兵	-3901
的距离	-3902
的那道	-3903
而成的	-3904
要知道	-3905
都未曾	-3906
对于这种	-3907
巅峰强者	-3908
有着许些	-3909
然后对着	-3910
若是没有	-3911
萧炎眼中	-3912
魂魔老人	-3913
五百	-3914
关键	-3915
具有	-3916
堪称	-3917
大批	-3918
奇怪	-3919
宗派	-3920
帝品	-3921
心情	-3922
快要	-3923
指着	-3924
数十	-3925
沾染	-3926
涌进	-3927
照耀	-3928
理智	-3929
羡慕	-3930
落地	-3931
蜥蜴	-3932
血雾	-3933
谁能	-3934
高阶	-3935
也只是	-3936
内院的	-3937
在面前	-3938
提醒道	-3939
破坏力	-3940
级别的	-3941
那可是	-3942
颤抖着	-3943
只见得那	-3944
天山血潭	-3945
心中却是	-3946
眼瞳之中	-3947
这些药材	-3948
萧炎的身体	-3949
吸了一口凉气	-3950
交谈	-3951
体型	-3952
停顿	-3953
单独	-3954
命的	-3955
回事	-3956
密林	-3957
小蛇	-3958
尽快	-3959
山壁	-3960
怒喝	-3961
我要	-3962
探出	-3963
早已	-3964
有事	-3965
极难	-3966
楼阁	-3967
灵气	-3968
筑基	-3969
紫黑	-3970
轻微	-3971
过了	-3972
这名	-3973
金银	-3974
随之	-3975
▁因此	-3976
丹药的	-3977
先是一	-3978
冷喝道	-3979
定然会	-3980
的少女	-3981
的那个	-3982
直接被	-3983
蝎龙兽	-3984
便是犹如	-3985
发出一道	-3986
天阶斗技	-3987
当下便是	-3988
扩散而开	-3989
有着一个	-3990
体内的斗气	-3991
有着不小的	-3992
萧炎望着那	-3993
hú	-3994
乐祸	-3995
你便	-3996
冷静	-3997
古界	-3998
将它	-3999
帝境	-4000
幸灾	-4001
恍然	-4002
战圈	-4003
抵挡	-4004
拉着	-4005
斗晶	-4006
明日	-4007
穿透	-4008
若无	-4009
都没	-4010
▁虽说	-4011
也没有	-4012
大家族	-4013
引起了	-4014
微笑着	-4015
旋即在	-4016
狼狈的	-4017
能够与	-4018
都不会	-4019
隐藏着	-4020
一些实力	-4021
倒飞而出	-4022
幸灾乐祸	-4023
的小医仙	-4024
瞧得萧炎	-4025
面色凝重	-4026
一层	-4027
上下	-4028
不堪	-4029
之所	-4030
了揉	-4031
五名	-4032
人物	-4033
再来	-4034
冲进	-4035
前去	-4036
定力	-4037
抢夺	-4038
眼前	-4039
碎石	-4040
▁苏千	-4041
但萧炎	-4042
将自己	-4043
怕也是	-4044
恐怕会	-4045
来不及	-4046
灵魂的	-4047
的拳头	-4048
能量体	-4049
能量罩	-4050
都是要	-4051
便是迅速	-4052
却是发现	-4053
身上扫过	-4054
面色阴沉	-4055
不由得有些	-4056
如今的萧炎	-4057
也是浮现一抹	-4058
亮的	-4059
修长	-4060
北阁	-4061
厉害	-4062
压缩	-4063
古域	-4064
同伴	-4065
回头	-4066
回答	-4067
地话	-4068
带来	-4069
应付	-4070
星域	-4071
月光	-4072
沉闷	-4073
满是	-4074
环境	-4075
珍贵	-4076
神奇	-4077
而回	-4078
胡须	-4079
药丹	-4080
视野	-4081
轻弹	-4082
这份	-4083
雁落	-4084
面子	-4085
鼻子	-4086
hún	-4087
也不再	-4088
了一步	-4089
他们也	-4090
宽敞的	-4091
揉了揉	-4092
死死的	-4093
满意的	-4094
火属性	-4095
熟悉的	-4096
盯着那	-4097
眸子中	-4098
睁开了	-4099
第一个	-4100
笼罩着	-4101
而在那	-4102
距离时	-4103
那东西	-4104
嘴中传出	-4105
帝品雏丹	-4106
手掌之上	-4107
散发而出	-4108
未曾料到	-4109
越来越多	-4110
这小家伙	-4111
也是缓缓的	-4112
便是出现在	-4113
都是忍不住的	-4114
他那	-4115
偷偷	-4116
变的	-4117
可没	-4118
四十	-4119
妙的	-4120
招呼	-4121
斗篷	-4122
此行	-4123
残图	-4124
殷红	-4125
波荡	-4126
洞口	-4127
活着	-4128
深入	-4129
牢牢	-4130
瞬息	-4131
而至	-4132
走向	-4133
身材	-4134
部位	-4135
阁下	-4136
雷光	-4137
之后的	-4138
了一般	-4139
发现了	-4140
或许是	-4141
有些发	-4142
模糊的	-4143
洪天啸	-4144
然大物	-4145
甚至连	-4146
的方位	-4147
相抗衡	-4148
药万归	-4149
也是微微	-4150
修炼天赋	-4151
毁灭火莲	-4152
烛离长老	-4153
笑吟吟的道	-4154
一会	-4155
不如	-4156
丰富	-4157
光线	-4158
八方	-4159
几次	-4160
号称	-4161
回了	-4162
小手	-4163
崩裂	-4164
徘徊	-4165
我这	-4166
扩大	-4167
抚着	-4168
易尘	-4169
深山	-4170
灰衣	-4171
狮鹫	-4172
疲惫	-4173
盘坐	-4174
看其	-4175
站立	-4176
融化	-4177
解释	-4178
身处	-4179
邀请	-4180
那人	-4181
重击	-4182
闯进	-4183
也正是	-4184
他已经	-4185
便是从	-4186
冰冷的	-4187
包裹在	-4188
十分钟	-4189
却是被	-4190
弄到手	-4191
急速的	-4192
每一个	-4193
然后将	-4194
都没有	-4195
到得后来	-4196
在半空中	-4197
庞然大物	-4198
眨眼时间	-4199
筑基灵液	-4200
金银二老	-4201
二品炼药师	-4202
快若闪电般的	-4203
一沉	-4204
不凡	-4205
不觉	-4206
丹域	-4207
之火	-4208
于是	-4209
几率	-4210
北王	-4211
后悔	-4212
吸纳	-4213
扬了	-4214
投入	-4215
抖动	-4216
抵抗	-4217
改变	-4218
整齐	-4219
点点	-4220
纹丝	-4221
背上	-4222
苦修	-4223
药液	-4224
黑盟	-4225
了一分	-4226
你现在	-4227
天北城	-4228
并不想	-4229
有可能	-4230
特殊的	-4231
的黑雾	-4232
隐藏在	-4233
顺利的	-4234
▁感受到	-4235
也是因为	-4236
令得他们	-4237
如此一来	-4238
有着一道	-4239
萧炎顿时	-4240
这所谓的	-4241
金色火焰	-4242
笑眯眯的道	-4243
轻松了一口气	-4244
眼中也是掠过一抹	-4245
一看	-4246
他还	-4247
传进	-4248
光凭	-4249
光点	-4250
凡是	-4251
危机	-4252
后期	-4253
外人	-4254
大军	-4255
少数	-4256
感谢	-4257
拼了	-4258
方式	-4259
晋升	-4260
最高	-4261
来回	-4262
桌面	-4263
汗水	-4264
湮灭	-4265
生怕	-4266
的灯	-4267
盘踞	-4268
落入	-4269
行进	-4270
说出	-4271
轻点	-4272
辛苦	-4273
韩池	-4274
骂道	-4275
一出现	-4276
具备着	-4277
喉咙间	-4278
扬了扬	-4279
方才会	-4280
望了望	-4281
柳长老	-4282
的念头	-4283
纳兰肃	-4284
雁落天	-4285
也同样是	-4286
传说中的	-4287
喷射而出	-4288
无形火蟒	-4289
望了一眼	-4290
森白火焰	-4291
萧炎先生	-4292
跟了上去	-4293
小医仙等人	-4294
萧炎摇了摇头	-4295
一场	-4296
化成	-4297
后的	-4298
屁股	-4299
放下	-4300
无穷	-4301
无论	-4302
更强	-4303
枫城	-4304
沿着	-4305
火毒	-4306
的啊	-4307
的的	-4308
瞧出	-4309
短暂	-4310
称呼	-4311
背景	-4312
能与	-4313
血海	-4314
赫家	-4315
那枚	-4316
震退	-4317
魂元	-4318
▁而且	-4319
但若是	-4320
便是自	-4321
冷声道	-4322
到现在	-4323
刺眼的	-4324
大多数	-4325
广场中	-4326
的一幕	-4327
看这模样	-4328
闪掠而来	-4329
丈许	-4330
不死	-4331
丹界	-4332
人家	-4333
仪式	-4334
修习	-4335
六百	-4336
动用	-4337
各处	-4338
品阶	-4339
喜意	-4340
展开	-4341
弟兄	-4342
总部	-4343
成绩	-4344
步的	-4345
狂猛	-4346
破解	-4347
若有	-4348
透明	-4349
骸骨	-4350
高速	-4351
不过当	-4352
停在了	-4353
其手中	-4354
凌厉的	-4355
无比的	-4356
的青色	-4357
眨了眨	-4358
空荡荡	-4359
倾洒而下	-4360
却是能够	-4361
怎么回事	-4362
短时间内	-4363
竟然便是	-4364
竟然能够	-4365
而随着其	-4366
萧炎身旁	-4367
越来越近	-4368
不着痕迹的	-4369
狼头佣兵团	-4370
............	-4371
下风	-4372
不停	-4373
丘陵	-4374
了好	-4375
你那	-4376
喧哗	-4377
圣者	-4378
墙壁	-4379
失神	-4380
奥巴	-4381
姐妹	-4382
年的	-4383
庄园	-4384
所过	-4385
方圆	-4386
火鼎	-4387
符文	-4388
约定	-4389
肌肉	-4390
训练	-4391
连绵	-4392
通玄	-4393
隐晦	-4394
雷电	-4395
飘荡	-4396
齐山	-4397
对他们	-4398
愣了愣	-4399
段距离	-4400
疑惑的	-4401
的女人	-4402
突兀的	-4403
让得她	-4404
这女人	-4405
隐隐的	-4406
飞速的	-4407
不由自主	-4408
四面八方	-4409
居然能够	-4410
眉头紧皱	-4411
萧炎微微	-4412
那些家伙	-4413
吸了一口气	-4414
也得	-4415
便宜	-4416
僵持	-4417
冲天	-4418
十多	-4419
只会	-4420
咳嗽	-4421
地阶	-4422
奈何	-4423
好像	-4424
岩石	-4425
巨蟒	-4426
忍受	-4427
拇指	-4428
斩杀	-4429
是那	-4430
机缘	-4431
火儿	-4432
牙齿	-4433
由此	-4434
轻风	-4435
迅猛	-4436
过的	-4437
充满着	-4438
早已经	-4439
色丹雷	-4440
那时候	-4441
▁而随着	-4442
对于这个	-4443
有所察觉	-4444
没有理会	-4445
盘腿而坐	-4446
自然不会	-4447
六品炼药师	-4448
持续了将近	-4449
微笑着点了点头	-4450
之底	-4451
之状	-4452
其内	-4453
反噬	-4454
合作	-4455
呜呜	-4456
守卫	-4457
屏障	-4458
得一	-4459
必要	-4460
惧怕	-4461
慵懒	-4462
我还	-4463
掌印	-4464
格外	-4465
温和	-4466
温柔	-4467
生火	-4468
的这	-4469
笑的	-4470
落的	-4471
询问	-4472
走廊	-4473
陛下	-4474
青衣	-4475
黑线	-4476
在周围	-4477
气息的	-4478
白色的	-4479
的威力	-4480
的温度	-4481
的麻烦	-4482
突破至	-4483
这么久	-4484
☆☆☆☆	-4485
与小医仙	-4486
也是开始	-4487
传出一道	-4488
修炼速度	-4489
应该也是	-4490
微皱着眉头	-4491
~~	-4492
上方	-4493
乱的	-4494
了抖	-4495
会长	-4496
充盈	-4497
创造	-4498
升空	-4499
吴辰	-4500
围观	-4501
山林	-4502
惊慌	-4503
手爪	-4504
抬眼	-4505
换取	-4506
是谁	-4507
洞穿	-4508
温暖	-4509
玉片	-4510
融入	-4511
这小	-4512
▁似是	-4513
也的确	-4514
了好几	-4515
依靠着	-4516
做什么	-4517
刚好是	-4518
却依然	-4519
只有着	-4520
回荡着	-4521
当初在	-4522
想起了	-4523
抖了抖	-4524
的脑袋	-4525
突破到	-4526
他的实力	-4527
嘿嘿一笑	-4528
萧炎忽然	-4529
沉吟了一会	-4530
淡淡的笑道	-4531
直接是令得	-4532
一滴	-4533
之门	-4534
云层	-4535
保证	-4536
凶狠	-4537
古虚	-4538
可还	-4539
安慰	-4540
定了	-4541
更甚	-4542
最强	-4543
殆尽	-4544
气丹	-4545
漂浮	-4546
独自	-4547
脚下	-4548
蒸发	-4549
郁闷	-4550
音爆	-4551
▁突然	-4552
一个小	-4553
与魂殿	-4554
了一丝	-4555
只听得	-4556
响起的	-4557
在先前	-4558
在场的	-4559
对面的	-4560
将这些	-4561
少宗主	-4562
星斗灵	-4563
这两人	-4564
都知道	-4565
金色的	-4566
天际之上	-4567
掀起一抹	-4568
狂暴能量	-4569
额头上的	-4570
飞掠而去	-4571
漠铁佣兵团	-4572
一趟	-4573
你说	-4574
别说	-4575
可那	-4576
喧闹	-4577
将我	-4578
崩溃	-4579
巨树	-4580
掠进	-4581
摧毁	-4582
是想	-4583
沙之	-4584
的看	-4585
眼芒	-4586
维持	-4587
萎靡	-4588
葛叶	-4589
讶异	-4590
还请	-4591
雷池	-4592
骷髅	-4593
龙皇	-4594
▁此时	-4595
▁脸色	-4596
也难以	-4597
势力的	-4598
在半空	-4599
在这等	-4600
怎么了	-4601
恭声道	-4602
悄然的	-4603
无声息	-4604
炼制出	-4605
狮鹫兽	-4606
的两人	-4607
的大厅	-4608
的弟子	-4609
贵宾席	-4610
偏头对着	-4611
着萧炎的	-4612
绝对不会	-4613
萧炎并未	-4614
萧炎手指	-4615
风雷北阁	-4616
天毒蝎龙兽	-4617
萧炎终于是	-4618
颤抖了起来	-4619
▁血	-4620
一震	-4621
不够	-4622
两三	-4623
但在	-4624
切的	-4625
到时	-4626
发挥	-4627
名额	-4628
吐血	-4629
品质	-4630
大盛	-4631
大赛	-4632
天猿	-4633
形容	-4634
晶层	-4635
来吧	-4636
死了	-4637
派人	-4638
清澈	-4639
略有	-4640
的石	-4641
省油	-4642
瞳孔	-4643
稀罕	-4644
笔直	-4645
舞动	-4646
苍穹	-4647
部队	-4648
魂风	-4649
魔雷	-4650
声响彻	-4651
成功的	-4652
手一挥	-4653
的薰儿	-4654
看来这	-4655
瞧得那	-4656
老人的	-4657
脑海中	-4658
苍白的	-4659
转过身	-4660
这倒是	-4661
那小子	-4662
魔天猿	-4663
▁见到那	-4664
不管怎样	-4665
两种异火	-4666
兄弟姐妹	-4667
内院之中	-4668
在这一刻	-4669
斗尊巅峰	-4670
的笑了笑	-4671
空间通道	-4672
脚尖一点	-4673
萧炎兄弟	-4674
三纹青灵丹	-4675
灵魂力量的	-4676
目光注视下	-4677
之名	-4678
了我	-4679
内心	-4680
再说	-4681
分殿	-4682
可爱	-4683
多加	-4684
幻境	-4685
想着	-4686
懒得	-4687
所见	-4688
扫向	-4689
星辰	-4690
气流	-4691
清冷	-4692
的好	-4693
着嘴	-4694
竞技	-4695
荡漾	-4696
莽荒	-4697
说明	-4698
遗留	-4699
闷哼	-4700
院落	-4701
除非	-4702
面对	-4703
▁两者	-4704
一脸的	-4705
什么事	-4706
从天际	-4707
又是一	-4708
寻找到	-4709
成功了	-4710
某一刻	-4711
猛然自	-4712
的名头	-4713
的喝声	-4714
的尽头	-4715
那模样	-4716
魂元天	-4717
两年时间	-4718
嘭的一声	-4719
是何等的	-4720
苍老身影	-4721
进入其中	-4722
远古种族	-4723
忍不住的一	-4724
炽热的温度	-4725
一群	-4726
一颗	-4727
上风	-4728
不止	-4729
主要	-4730
介绍	-4731
出场	-4732
剧毒	-4733
吃了	-4734
头人	-4735
怠慢	-4736
意味	-4737
战场	-4738
搜寻	-4739
收进	-4740
整座	-4741
日的	-4742
是他	-4743
暗红	-4744
最快	-4745
的水	-4746
精彩	-4747
行动	-4748
贝齿	-4749
远超	-4750
不过是	-4751
含笑道	-4752
回来了	-4753
比起来	-4754
的功法	-4755
神秘人	-4756
而且这	-4757
蜥蜴人	-4758
也是不敢	-4759
他的身体	-4760
到得最后	-4761
在地面上	-4762
并不知道	-4763
悄无声息	-4764
而到时候	-4765
肉眼可见	-4766
至少也是	-4767
萧炎望着	-4768
萧炎缓缓	-4769
萧炎脸庞	-4770
▁与	-4771
▁以	-4772
专门	-4773
之位	-4774
余的	-4775
便先	-4776
八星	-4777
十五	-4778
十指	-4779
千丈	-4780
去找	-4781
可否	-4782
可数	-4783
多了	-4784
天色	-4785
尾巴	-4786
惋惜	-4787
方面	-4788
晋阶	-4789
暴动	-4790
杀气	-4791
玉石	-4792
磨挲	-4793
罗侯	-4794
论起	-4795
跟在	-4796
迎面	-4797
逃脱	-4798
遭受	-4799
郑重	-4800
长发	-4801
陆牧	-4802
隔绝	-4803
雷赢	-4804
黑洞	-4805
其身形	-4806
再如何	-4807
大笑道	-4808
天魔蟒	-4809
妖天啸	-4810
将会是	-4811
带来的	-4812
我们也	-4813
所说的	-4814
的名字	-4815
的学员	-4816
的心火	-4817
被称为	-4818
都已经	-4819
青色的	-4820
了他一眼	-4821
仅仅只有	-4822
咬了咬牙	-4823
在天空上	-4824
漆黑眸中	-4825
皱了皱眉	-4826
通玄长老	-4827
顿时变得	-4828
也是微微一	-4829
沙之佣兵团	-4830
萧炎的实力	-4831
,”	-4832
七星	-4833
交织	-4834
享受	-4835
你在	-4836
冲突	-4837
出世	-4838
可这	-4839
四方	-4840
塞进	-4841
外院	-4842
巨响	-4843
某些	-4844
检查	-4845
每天	-4846
漠城	-4847
烟雾	-4848
留情	-4849
相差	-4850
笑笑	-4851
米尔	-4852
绕是	-4853
走去	-4854
转了	-4855
风声	-4856
黑尺	-4857
上一次	-4858
不出来	-4859
他方才	-4860
他的话	-4861
十几名	-4862
古虚龙	-4863
回气丹	-4864
地萧炎	-4865
左右的	-4866
惊骇的	-4867
的一种	-4868
盘坐在	-4869
盛长老	-4870
给萧炎	-4871
表面上	-4872
轩护法	-4873
黑色的	-4874
一个小时	-4875
却是有些	-4876
太古虚龙	-4877
如今的他	-4878
泛起一抹	-4879
省油的灯	-4880
眉头一皱	-4881
萧炎也不	-4882
狠狠的撞击	-4883
一招	-4884
不下	-4885
不在	-4886
不远	-4887
之势	-4888
之的	-4889
他这	-4890
你有	-4891
冷意	-4892
化的	-4893
化解	-4894
压下	-4895
发展	-4896
多说	-4897
头皮	-4898
完整	-4899
密布	-4900
就会	-4901
巨蛇	-4902
开的	-4903
强光	-4904
惊人	-4905
敌人	-4906
期待	-4907
期盼	-4908
残破	-4909
没人	-4910
清醒	-4911
狂妄	-4912
百丈	-4913
的图	-4914
等到	-4915
细细	-4916
贴着	-4917
适合	-4918
遗憾	-4919
青山	-4920
面积	-4921
▁眼睛	-4922
不过我	-4923
中传出	-4924
丹塔的	-4925
了几步	-4926
后不久	-4927
后者的	-4928
小心点	-4929
的空气	-4930
释放着	-4931
颇有些	-4932
▁巨大的	-4933
也是极为	-4934
八品丹药	-4935
实力达到	-4936
涌现而出	-4937
白色火焰	-4938
究竟是何	-4939
能够成为	-4940
无数道目光的注视下	-4941
!)	-4942
。,	-4943
一半	-4944
一株	-4945
付敖	-4946
倾泻	-4947
兽火	-4948
凶魂	-4949
呢喃	-4950
天南	-4951
宗师	-4952
小说	-4953
巨头	-4954
强度	-4955
投注	-4956
收集	-4957
物品	-4958
竞争	-4959
茫茫	-4960
蓝衣	-4961
血丹	-4962
血池	-4963
视为	-4964
谷尼	-4965
面孔	-4966
▁场中	-4967
不容易	-4968
代表着	-4969
十几道	-4970
如此的	-4971
将整个	-4972
异样的	-4973
愤怒的	-4974
房间中	-4975
的族人	-4976
让我们	-4977
辰天南	-4978
净莲妖圣	-4979
半圣强者	-4980
应该不会	-4981
有着一抹	-4982
石台之上	-4983
踏着虚空	-4984
不可能的事	-4985
一幕	-4986
一星	-4987
不假	-4988
变了	-4989
哆嗦	-4990
头发	-4991
密室	-4992
待遇	-4993
意识	-4994
晶莹	-4995
束缚	-4996
枯竭	-4997
炙烤	-4998
生活	-4999
白袍	-5000
眼皮	-5001
稀少	-5002
管理	-5003
翡翠	-5004
脑子	-5005
蔚蓝	-5006
重视	-5007
鸣声	-5008
交易会	-5009
化生火	-5010
因为那	-5011
在这般	-5012
得犹如	-5013
我也不	-5014
斗灵丹	-5015
灰袍人	-5016
的同时	-5017
的落下	-5018
胸口处	-5019
莫名其	-5020
薰儿的	-5021
话语中	-5022
这里是	-5023
那萧炎	-5024
..."	-5025
▁第六百	-5026
大殿之内	-5027
微微闪烁	-5028
斗皇巅峰	-5029
森林之中	-5030
萧炎面色	-5031
这个名字	-5032
进入内院	-5033
自其体内暴涌而出	-5034
一朵	-5035
丹王	-5036
之心	-5037
优雅	-5038
体质	-5039
冷艳	-5040
出言	-5041
压压	-5042
古特	-5043
家主	-5044
帮我	-5045
心惊	-5046
把你	-5047
来自	-5048
次的	-5049
波及	-5050
玄金	-5051
瞟了	-5052
立于	-5053
虚影	-5054
跟我	-5055
蹬蹬	-5056
轻笑	-5057
远去	-5058
雏形	-5059
▁两人	-5060
一缕缕	-5061
了一阵	-5062
他们所	-5063
他现在	-5064
到极致	-5065
就这般	-5066
抚摸着	-5067
施展了	-5068
有机会	-5069
玄金雷	-5070
的便是	-5071
的药方	-5072
苏长老	-5073
若真是	-5074
融血丹	-5075
选拔赛	-5076
一道黑影	-5077
三年时间	-5078
三种异火	-5079
但却并未	-5080
咬着红唇	-5081
天目山脉	-5082
带着许些	-5083
拳头之上	-5084
片刻时间	-5085
的那一刻	-5086
终于是在	-5087
而其身形	-5088
自然是要	-5089
许久之后	-5090
转过身来	-5091
远古遗迹	-5092
闪掠而过	-5093
淡淡的声音	-5094
也是点了点头	-5095
▁萧炎点了点头	-5096
缓缓的吐了一口气	-5097
一边	-5098
不急	-5099
不绝	-5100
不菲	-5101
云雾	-5102
何处	-5103
再者	-5104
城中	-5105
增幅	-5106
天阶	-5107
她也	-5108
姐姐	-5109
我与	-5110
所想	-5111
收好	-5112
木盆	-5113
流动	-5114
现出	-5115
白帮	-5116
盔甲	-5117
纹路	-5118
给人	-5119
记住	-5120
车队	-5121
▁脚步	-5122
一挥手	-5123
不过那	-5124
俏脸上	-5125
停下了	-5126
到最后	-5127
只要你	-5128
支队伍	-5129
是不是	-5130
更加的	-5131
最好的	-5132
狮冥宗	-5133
的笑声	-5134
硕大的	-5135
过多的	-5136
▁察觉到	-5137
众人便是	-5138
似乎也是	-5139
头人长老	-5140
小医仙与	-5141
目光也是	-5142
睁开双眼	-5143
空间之中	-5144
能量波动	-5145
血脉之力	-5146
那般模样	-5147
额头之上	-5148
弥漫而出的	-5149
显得格外的	-5150
一筹	-5151
一缩	-5152
他对	-5153
做到	-5154
六星	-5155
关头	-5156
前往	-5157
反对	-5158
就此	-5159
巨人	-5160
干尸	-5161
想法	-5162
指挥	-5163
挑衅	-5164
收服	-5165
来得	-5166
某处	-5167
淡然	-5168
火奴	-5169
玄丹	-5170
白雾	-5171
碎片	-5172
站于	-5173
绯红	-5174
腐蚀	-5175
血宗	-5176
西开	-5177
进攻	-5178
阴阳	-5179
▁再次	-5180
。’’	-5181
了一遍	-5182
令得她	-5183
半点的	-5184
成一片	-5185
而在其	-5186
而至于	-5187
身上的	-5188
麻烦了	-5189
不是什么	-5190
九玄金雷	-5191
也是难以	-5192
几乎已经	-5193
几乎是在	-5194
即便如此	-5195
山洞之中	-5196
提升实力	-5197
有些感到	-5198
纹丝不动	-5199
缓缓的在	-5200
能够看见	-5201
实在是有些	-5202
见到这一幕	-5203
不信	-5204
举起	-5205
交战	-5206
体乳	-5207
冷气	-5208
匕首	-5209
告辞	-5210
在与	-5211
天怒	-5212
射向	-5213
小辈	-5214
慌乱	-5215
慢慢	-5216
打得	-5217
招惹	-5218
挂着	-5219
指向	-5220
断裂	-5221
朝前	-5222
本尊	-5223
深蓝	-5224
灵族	-5225
煅烧	-5226
略一	-5227
确是	-5228
绝望	-5229
而不	-5230
自身	-5231
虚眯	-5232
还想	-5233
黑云	-5234
▁瞧着	-5235
▁这些	-5236
不住的	-5237
了回去	-5238
伸出手	-5239
凶猛的	-5240
可不会	-5241
唐火儿	-5242
在经过	-5243
宽大的	-5244
手掌上	-5245
比先前	-5246
的血色	-5247
算得上	-5248
苦笑着	-5249
还需要	-5250
门口处	-5251
阶别的	-5252
中的萧炎	-5253
他们能够	-5254
却是陡然	-5255
对于他们	-5256
小医仙的	-5257
斗灵强者	-5258
显得有些	-5259
脸色微变	-5260
药老也是	-5261
萧炎三人	-5262
萧炎对着	-5263
这种情况	-5264
▁听得此话	-5265
不少人都是	-5266
不由自主的	-5267
抬头望着那	-5268
级别的强者	-5269
长长的吐了一口气	-5270
丹香	-5271
交代	-5272
你就	-5273
做的	-5274
偷袭	-5275
凶名	-5276
剧变	-5277
听到	-5278
噬金	-5279
在她	-5280
大了	-5281
天冥	-5282
定要	-5283
居高	-5284
当时	-5285
得很	-5286
总归	-5287
惊疑	-5288
斑斓	-5289
明眸	-5290
有这	-5291
构建	-5292
森严	-5293
欢呼	-5294
毒雾	-5295
洪立	-5296
火芒	-5297
琳菲	-5298
痊愈	-5299
硬碰	-5300
胆子	-5301
造化	-5302
,"”	-5303
▁紫研	-5304
▁身形	-5305
一定要	-5306
不过他	-5307
了多少	-5308
位长老	-5309
周围那	-5310
噬金鼠	-5311
居然会	-5312
拥有了	-5313
淡漠的	-5314
的气势	-5315
缓缓地	-5316
落在了	-5317
进了那	-5318
!!!!	-5319
▁魂天帝	-5320
六品丹药	-5321
大厅之中	-5322
收回目光	-5323
火焰之中	-5324
经脉之中	-5325
能量涟漪	-5326
脸色阴沉	-5327
那个家伙	-5328
那庞大的	-5329
在萧炎心中	-5330
“”	-5331
”。	-5332
一件	-5333
七八	-5334
举办	-5335
人心	-5336
伸手	-5337
便好	-5338
关于	-5339
受了	-5340
庆幸	-5341
循环	-5342
心焰	-5343
情感	-5344
感叹	-5345
时不	-5346
是你	-5347
曲线	-5348
杀手	-5349
来找	-5350
火球	-5351
狂热	-5352
的高	-5353
直冲	-5354
真价	-5355
纤细	-5356
背负	-5357
血刀	-5358
袅袅	-5359
诱人	-5360
踪迹	-5361
轻柔	-5362
输了	-5363
这团	-5364
青丝	-5365
出一道	-5366
可真是	-5367
后面的	-5368
在体内	-5369
对方的	-5370
平静的	-5371
恐怕是	-5372
所凝聚	-5373
散发出	-5374
有多少	-5375
有这般	-5376
玄冥宗	-5377
的冲动	-5378
看台上	-5379
置可否	-5380
菩提子	-5381
萧炎从	-5382
闪烁间	-5383
颜色的	-5384
不用担心	-5385
他们也是	-5386
停留在了	-5387
古龙一族	-5388
收入纳戒	-5389
灰衣老者	-5390
莽荒古域	-5391
赤火长老	-5392
转过头来	-5393
远远看去	-5394
沉吟了片刻	-5395
紧皱着眉头	-5396
上门	-5397
众目	-5398
减缓	-5399
双腿	-5400
喷吐	-5401
妖异	-5402
小小	-5403
手下	-5404
拦截	-5405
无力	-5406
毛孔	-5407
满身	-5408
狞笑	-5409
白皙	-5410
空地	-5411
等你	-5412
致命	-5413
苓儿	-5414
苛刻	-5415
踏足	-5416
雷纳	-5417
黑蛇	-5418
你还是	-5419
修炼了	-5420
停止了	-5421
包裹着	-5422
半个月	-5423
恭敬的	-5424
或许会	-5425
振动着	-5426
海心焰	-5427
狰狞的	-5428
的控制	-5429
的药老	-5430
第三层	-5431
货真价	-5432
那原本	-5433
♀♀♀♀	-5434
一名身着	-5435
不过可惜	-5436
丹塔老祖	-5437
却是令得	-5438
目光扫过	-5439
般的存在	-5440
苦笑一声	-5441
这等实力	-5442
这里的人	-5443
非常清楚	-5444
可不是什么	-5445
微微皱了皱	-5446
斗气大陆上	-5447
星斗圣后期	-5448
身上扫了扫	-5449
萧炎微微点头	-5450
一跺	-5451
从而	-5452
位于	-5453
你不	-5454
再有	-5455
凑齐	-5456
取而	-5457
古图	-5458
合适	-5459
咫尺	-5460
壮硕	-5461
妖艳	-5462
姿态	-5463
小腹	-5464
帮手	-5465
很想	-5466
我看	-5467
手持	-5468
暗劲	-5469
极快	-5470
猎捕	-5471
白的	-5472
的四	-5473
看不	-5474
矗立	-5475
石柱	-5476
碰触	-5477
繁琐	-5478
脑中	-5479
落败	-5480
蛮横	-5481
血精	-5482
袭击	-5483
说的	-5484
那边	-5485
都被	-5486
铁棍	-5487
长久	-5488
阴狠	-5489
青灵	-5490
▁所以	-5491
不同的	-5492
剑尊者	-5493
忘记了	-5494
拍卖师	-5495
毕竟是	-5496
的主人	-5497
的大战	-5498
紫研的	-5499
缭绕在	-5500
这就是	-5501
遇见了	-5502
万火长老	-5503
他没想到	-5504
刚欲说话	-5505
到了什么	-5506
即便是他	-5507
却并没有	-5508
斗帝强者	-5509
炼药师的	-5510
爆炸而开	-5511
的火属性	-5512
萧炎眼睛	-5513
黄泉天怒	-5514
在萧炎手中	-5515
%%	-5516
一战	-5517
一根	-5518
一面	-5519
两步	-5520
之味	-5521
乐意	-5522
交叉	-5523
你想	-5524
倒退	-5525
停在	-5526
催促	-5527
兽域	-5528
冥河	-5529
出面	-5530
南海	-5531
口中	-5532
圆润	-5533
废墟	-5534
戈尔	-5535
我不	-5536
抽出	-5537
接下	-5538
暗暗	-5539
极崩	-5540
沉声	-5541
浪费	-5542
深洞	-5543
煞队	-5544
熟练	-5545
甩了	-5546
留在	-5547
神涧	-5548
秘密	-5549
紧跟	-5550
苏笑	-5551
萧廷	-5552
记载	-5553
轻挥	-5554
近在	-5555
震荡	-5556
古南海	-5557
可不能	-5558
可若是	-5559
回复了	-5560
寻常的	-5561
岩浆海	-5562
无尽的	-5563
火灵蛇	-5564
的奇异	-5565
石漠城	-5566
竟然敢	-5567
自语道	-5568
菩提心	-5569
不得不说	-5570
不置可否	-5571
也是一怔	-5572
也是犹如	-5573
五星斗尊	-5574
动了一下	-5575
最重要的	-5576
灌注进入	-5577
皆是有些	-5578
能够让得	-5579
脸色却是	-5580
萧炎身形	-5581
这道念头	-5582
▁天空之上	-5583
之间的差距	-5584
苏千大长老	-5585
货真价实的	-5586
▁的	-5587
三老	-5588
不满	-5589
中途	-5590
之旁	-5591
九星	-5592
何必	-5593
入体	-5594
八品	-5595
冲出	-5596
力丹	-5597
动容	-5598
劲道	-5599
发动	-5600
发麻	-5601
哭笑	-5602
坚固	-5603
多出	-5604
天境	-5605
很大	-5606
性格	-5607
感激	-5608
打在	-5609
捎了	-5610
掠上	-5611
握了	-5612
放松	-5613
淡紫	-5614
狼藉	-5615
睽睽	-5616
窜出	-5617
簇拥	-5618
紫金	-5619
费尽	-5620
赫蒙	-5621
走过	-5622
退开	-5623
重量	-5624
陆续	-5625
静的	-5626
一个月	-5627
万金币	-5628
他似乎	-5629
任何的	-5630
倒并未	-5631
八极崩	-5632
其身后	-5633
冥河盟	-5634
冷漠的	-5635
副殿主	-5636
取而代	-5637
只是一	-5638
塔戈尔	-5639
家族中	-5640
就是连	-5641
并不算	-5642
强猛的	-5643
得令人	-5644
拿出来	-5645
泛起了	-5646
的劲气	-5647
的天空	-5648
的炼制	-5649
的紫研	-5650
短短几	-5651
而且那	-5652
而现在	-5653
莫名的	-5654
解决掉	-5655
赫长老	-5656
身体的	-5657
这之中	-5658
那我们	-5659
黑魔雷	-5660
▁望着这	-5661
中年男子	-5662
众目睽睽	-5663
几道身影	-5664
恐怕将会	-5665
成为一名	-5666
手中重尺	-5667
旋即迅速	-5668
雪魔天猿	-5669
▁想到此处	-5670
▁随着萧炎	-5671
在萧炎身旁	-5672
在萧炎面前	-5673
萧炎点了点头	-5674
▁两	-5675
万药	-5676
主人	-5677
乌黑	-5678
事后	-5679
五道	-5680
从容	-5681
变态	-5682
变淡	-5683
右掌	-5684
后果	-5685
含笑	-5686
固然	-5687
塔中	-5688
天凰	-5689
头上	-5690
安排	-5691
巨殿	-5692
开山	-5693
我在	-5694
无一	-5695
火翼	-5696
相对	-5697
石梯	-5698
神农	-5699
红芒	-5700
过多	-5701
青海	-5702
面庞	-5703
顺手	-5704
麻木	-5705
▁经过	-5706
不要再	-5707
也是要	-5708
了几下	-5709
似也是	-5710
便是那	-5711
凝重的	-5712
台上的	-5713
对于那	-5714
恐怕就	-5715
慕兰谷	-5716
成虚无	-5717
捎了捎	-5718
没办法	-5719
淬体乳	-5720
甩了甩	-5721
第二更	-5722
美眸中	-5723
艰难的	-5724
药老那	-5725
锋利的	-5726
面前这	-5727
额头上	-5728
一个不慎	-5729
中央位置	-5730
也是一名	-5731
实在是太	-5732
抚着胡须	-5733
拳头紧握	-5734
消失在了	-5735
瞬间之后	-5736
立刻便是	-5737
这等强者	-5738
黑角域中	-5739
▁话音落下	-5740
加玛帝国的	-5741
喃喃了一声	-5742
所在的方向	-5743
百丈庞大的	-5744
真正的强者	-5745
自然不可能	-5746
自然是能够	-5747
便是化为一道	-5748
苦笑着点了点头	-5749
一副	-5750
一月	-5751
与她	-5752
举手	-5753
习惯	-5754
你来	-5755
光束	-5756
六品	-5757
凤凰	-5758
凶芒	-5759
千万	-5760
半尺	-5761
哪有	-5762
喷发	-5763
小道	-5764
张了	-5765
强烈	-5766
悬崖	-5767
悬空	-5768
成人	-5769
担忧	-5770
推移	-5771
时日	-5772
极少	-5773
比如	-5774
满溢	-5775
然无	-5776
爷爷	-5777
牵扯	-5778
电光	-5779
离火	-5780
紧缩	-5781
胜负	-5782
艳羡	-5783
血战	-5784
退去	-5785
部落	-5786
降临	-5787
面露	-5788
黄阶	-5789
齐齐	-5790
▁一道	-5791
▁手指	-5792
不过你	-5793
了一条	-5794
了十几	-5795
于身后	-5796
人都是	-5797
以前的	-5798
但却是	-5799
出色的	-5800
可如今	-5801
四天尊	-5802
旋即那	-5803
的庞大	-5804
的迹象	-5805
直接将	-5806
相当于	-5807
知道了	-5808
经历了	-5809
萧炎地	-5810
这些事	-5811
那一直	-5812
不知不觉	-5813
倒的确是	-5814
却是已经	-5815
宛如实质	-5816
手掌缓缓	-5817
爆发而出	-5818
狠狠的砸	-5819
的大长老	-5820
的小女孩	-5821
萧炎再度	-5822
萧炎脚步	-5823
近在咫尺	-5824
顿时响起	-5825
骂了一声	-5826
对于萧炎的	-5827
惊天动地的	-5828
没有半点的	-5829
究竟是什么	-5830
米特尔拍卖场	-5831
sè	-5832
上那	-5833
不比	-5834
不耐	-5835
不说	-5836
九凤	-5837
九十	-5838
人多	-5839
八翼	-5840
冰灵	-5841
凶险	-5842
奇迹	-5843
如水	-5844
嫉妒	-5845
小镇	-5846
就要	-5847
尺影	-5848
干瘦	-5849
弹射	-5850
忐忑	-5851
懂得	-5852
所能	-5853
握住	-5854
摆放	-5855
来历	-5856
混账	-5857
滚烫	-5858
营地	-5859
萦绕	-5860
行事	-5861
行至	-5862
讪讪	-5863
赶来	-5864
远比	-5865
逃跑	-5866
通知	-5867
都在	-5868
都得	-5869
银光	-5870
锤炼	-5871
阿泰	-5872
难免	-5873
顶峰	-5874
高空	-5875
默契	-5876
▁古元	-5877
▁因为	-5878
▁火焰	-5879
不会比	-5880
与药老	-5881
二人的	-5882
他清楚	-5883
冲着他	-5884
在地面	-5885
大厅内	-5886
手不及	-5887
的一座	-5888
竟然连	-5889
等人的	-5890
若是要	-5891
落神涧	-5892
闪电般	-5893
黑影人	-5894
不过还好	-5895
丹王古河	-5896
也就不再	-5897
却是缓缓	-5898
声音响起	-5899
微微一愣	-5900
微微一颤	-5901
沉声喝道	-5902
灵魂深处	-5903
突然有着	-5904
若是萧炎	-5905
萧炎眼眸	-5906
萧炎笑道	-5907
这种感觉	-5908
难以想象	-5909
扭曲的空间	-5910
深吸一口气	-5911
▁黑	-5912
一具	-5913
一抖	-5914
二字	-5915
偏僻	-5916
区仙	-5917
十年	-5918
叶城	-5919
四道	-5920
团队	-5921
大刀	-5922
对她	-5923
山峦	-5924
干净	-5925
异象	-5926
微沉	-5927
心生	-5928
恍惚	-5929
所为	-5930
手脚	-5931
打听	-5932
报酬	-5933
族群	-5934
杀伐	-5935
毒辣	-5936
浅浅	-5937
消逝	-5938
炎烬	-5939
破了	-5940
稀奇	-5941
美妇	-5942
莫测	-5943
蒙力	-5944
袖中	-5945
觉的	-5946
负手	-5947
还得	-5948
金铁	-5949
障壁	-5950
!’’	-5951
▁此刻	-5952
上许多	-5953
平日里	-5954
异常的	-5955
张了张	-5956
恐怕连	-5957
我可以	-5958
所在的	-5959
没有人	-5960
的年轻	-5961
瞟了瞟	-5962
而就在	-5963
萧家的	-5964
选择了	-5965
钻进了	-5966
▁见到这	-5967
也是悄然	-5968
仅仅只能	-5969
心头也是	-5970
掠过许些	-5971
措手不及	-5972
斗气双翼	-5973
斗破苍穹	-5974
方才逐渐	-5975
死寂之门	-5976
突然响起	-5977
能够达到	-5978
萧炎眼神	-5979
那么便是	-5980
飞行斗技	-5981
▁话音一落	-5982
便走出现在	-5983
千丈庞大的	-5984
即便是萧炎	-5985
暴掠而来的	-5986
现在的实力	-5987
萧炎一行人	-5988
陨落心炎的	-5989
面面相觑了一眼	-5990
##	-5991
三天	-5992
三更	-5993
三百	-5994
为止	-5995
也敢	-5996
保存	-5997
前的	-5998
反击	-5999
大喝	-6000
容颜	-6001
对战	-6002
就好	-6003
已被	-6004
弯身	-6005
思议	-6006
截然	-6007
掌风	-6008
无聊	-6009
晶体	-6010
杀人	-6011
极具	-6012
某个	-6013
淡化	-6014
淡黄	-6015
烙毒	-6016
眉宇	-6017
瞥着	-6018
老爷	-6019
跳跃	-6020
躺在	-6021
采取	-6022
阵法	-6023
▁由于	-6024
▁说完	-6025
不少的	-6026
不能再	-6027
了一次	-6028
今日的	-6029
使劲的	-6030
出来了	-6031
刺耳的	-6032
四方阁	-6033
失声道	-6034
如今这	-6035
居高临	-6036
得到的	-6037
所造成	-6038
更多的	-6039
的方式	-6040
的火莲	-6041
的血迹	-6042
矗立在	-6043
竞技场	-6044
询问道	-6045
三大家族	-6046
五大家族	-6047
咳了一声	-6048
对于这些	-6049
小心一些	-6050
尽数包裹	-6051
岩枭先生	-6052
带起一股	-6053
席卷而开	-6054
抹了一把	-6055
抹去嘴角	-6056
毫不犹豫	-6057
没想到你	-6058
炼制成功	-6059
的声音中	-6060
的黑袍人	-6061
胸膛之上	-6062
说到此处	-6063
轰隆隆的	-6064
面色都是	-6065
▁心中闪过	-6066
▁望着萧炎	-6067
波动了起来	-6068
自然是不会	-6069
自然是知道	-6070
若隐若现的	-6071
难看了起来	-6072
一出	-6073
七十	-6074
三花	-6075
不差	-6076
不算	-6077
不自	-6078
严厉	-6079
中所	-6080
之顶	-6081
借口	-6082
做完	-6083
光华	-6084
凭你	-6085
凶戾	-6086
切磋	-6087
北方	-6088
双瞳	-6089
反映	-6090
口处	-6091
可他	-6092
地人	-6093
妖凰	-6094
尽力	-6095
尽是	-6096
差错	-6097
张开	-6098
强化	-6099
心理	-6100
怔怔	-6101
懒腰	-6102
戒备	-6103
抹除	-6104
拳风	-6105
换作	-6106
掠来	-6107
擒住	-6108
放大	-6109
故意	-6110
文字	-6111
火柱	-6112
而他	-6113
荧光	-6114
跳了	-6115
过得	-6116
退缩	-6117
销售	-6118
高耸	-6119
▁心神	-6120
。。。	-6121
中州上	-6122
之所以	-6123
也不能	-6124
也清楚	-6125
云岚山	-6126
以往的	-6127
切米尔	-6128
却并不	-6129
嘀咕道	-6130
大势力	-6131
尽全力	-6132
是萧炎	-6133
猛的自	-6134
的手段	-6135
的神秘	-6136
的那枚	-6137
转了转	-6138
阴冷的	-6139
难道是	-6140
黑皇城	-6141
▁第五百	-6142
一年时间	-6143
一阵波动	-6144
三大龙王	-6145
不断的在	-6146
五品丹药	-6147
出了一个	-6148
喷了出来	-6149
地阶斗技	-6150
山峰之上	-6151
有着几分	-6152
漆黑色的	-6153
炼药大师	-6154
由此可见	-6155
给人一种	-6156
萧炎一笑	-6157
顿时有些	-6158
并没有什么	-6159
逐渐的变得	-6160
一跃	-6161
不轻	-6162
两条	-6163
举止	-6164
从天	-6165
伴生	-6166
你会	-6167
儿子	-6168
几条	-6169
分出	-6170
切齿	-6171
加速	-6172
又能	-6173
变动	-6174
唐鹰	-6175
在座	-6176
外围	-6177
宣布	-6178
射进	-6179
岩城	-6180
平衡	-6181
异动	-6182
当其	-6183
成的	-6184
找个	-6185
挑了	-6186
掏出	-6187
无用	-6188
是要	-6189
更多	-6190
未免	-6191
杨皓	-6192
残魂	-6193
气得	-6194
沉思	-6195
清雅	-6196
瀑布	-6197
照射	-6198
的传	-6199
目露	-6200
相战	-6201
确实	-6202
碧蛇	-6203
神情	-6204
祭坛	-6205
稳稳	-6206
紫光	-6207
老妪	-6208
老子	-6209
舒畅	-6210
触摸	-6211
警戒	-6212
谢震	-6213
谷中	-6214
貌似	-6215
铜片	-6216
▁缓缓	-6217
交出来	-6218
地实力	-6219
坚硬的	-6220
定然是	-6221
得意的	-6222
心头的	-6223
斗破的	-6224
无人能	-6225
是如何	-6226
犹如那	-6227
的一名	-6228
的人流	-6229
的大殿	-6230
的手臂	-6231
的药力	-6232
虽然他	-6233
让萧炎	-6234
陌生的	-6235
魔兽的	-6236
两道人影	-6237
中心位置	-6238
八翼黑蛇	-6239
冲天而起	-6240
可却依然	-6241
咬牙切齿	-6242
哭笑不得	-6243
嘿嘿笑道	-6244
女王陛下	-6245
好不容易	-6246
稳住身形	-6247
这么大的	-6248
魂殿强者	-6249
黄泉妖圣	-6250
▁听得这话	-6251
瞥了一眼那	-6252
无奈的点了点头	-6253
▁萧炎微微点了点头	-6254
▁轻	-6255
一句	-6256
一堆	-6257
两女	-6258
以你	-6259
你先	-6260
保留	-6261
傲气	-6262
免得	-6263
兽潮	-6264
分开	-6265
到那	-6266
各样	-6267
圣城	-6268
增加	-6269
如雷	-6270
寒冰	-6271
尺身	-6272
山涧	-6273
得知	-6274
微张	-6275
心里	-6276
把玩	-6277
游身	-6278
火炫	-6279
珠体	-6280
眼花	-6281
窜进	-6282
等我	-6283
纱衣	-6284
翻涌	-6285
耀眼	-6286
自信	-6287
蜈崖	-6288
表哥	-6289
裁判	-6290
认真	-6291
趋势	-6292
这块	-6293
▁一路	-6294
一条条	-6295
了一片	-6296
了无数	-6297
但这种	-6298
便是要	-6299
入其中	-6300
出什么	-6301
受到了	-6302
基本上	-6303
尽头的	-6304
我已经	-6305
有一些	-6306
柔软的	-6307
桌面上	-6308
猎捕赛	-6309
的一位	-6310
的强横	-6311
的那名	-6312
自然会	-6313
▁听得这	-6314
▁淡淡的	-6315
一声低喝	-6316
不过所幸	-6317
不过这种	-6318
之外行去	-6319
,	-6320
的	-6321
。	-6322
是	-6323
一	-6324
▁	-6325
了	-6326
不	-6327
.	-6328
这	-6329
在	-6330
萧	-6331
炎	-6332
着	-6333
那	-6334
”	-6335
“	-6336
然	-6337
之	-6338
道	-6339
中	-6340
有	-6341
人	-6342
也	-6343
而	-6344
出	-6345
他	-6346
来	-6347
上	-6348
得	-6349
后	-6350
些	-6351
便	-6352
能	-6353
身	-6354
大	-6355
下	-6356
到	-6357
时	-6358
过	-6359
头	-6360
手	-6361
天	-6362
声	-6363
老	-6364
火	-6365
对	-6366
间	-6367
气	-6368
地	-6369
力	-6370
微	-6371
如	-6372
笑	-6373
心	-6374
我	-6375
为	-6376
你	-6377
光	-6378
色	-6379
斗	-6380
将	-6381
起	-6382
药	-6383
会	-6384
!	-6385
可	-6386
个	-6387
者	-6388
现	-6389
小	-6390
?	-6391
般	-6392
都	-6393
其	-6394
以	-6395
此	-6396
所	-6397
面	-6398
眼	-6399
缓	-6400
体	-6401
们	-6402
要	-6403
点	-6404
种	-6405
动	-6406
去	-6407
强	-6408
还	-6409
却	-6410
么	-6411
自	-6412
目	-6413
看	-6414
前	-6415
无	-6416
脸	-6417
与	-6418
空	-6419
望	-6420
内	-6421
说	-6422
即	-6423
于	-6424
多	-6425
:	-6426
就	-6427
轻	-6428
方	-6429
没	-6430
黑	-6431
子	-6432
见	-6433
炼	-6434
年	-6435
魂	-6436
家	-6437
当	-6438
量	-6439
话	-6440
想	-6441
被	-6442
只	-6443
开	-6444
处	-6445
成	-6446
最	-6447
长	-6448
好	-6449
够	-6450
三	-6451
两	-6452
再	-6453
实	-6454
旋	-6455
几	-6456
并	-6457
进	-6458
淡	-6459
等	-6460
从	-6461
族	-6462
异	-6463
次	-6464
丹	-6465
发	-6466
若	-6467
名	-6468
灵	-6469
度	-6470
感	-6471
经	-6472
已	-6473
变	-6474
口	-6475
少	-6476
让	-6477
掌	-6478
山	-6479
重	-6480
极	-6481
但	-6482
意	-6483
生	-6484
位	-6485
白	-6486
血	-6487
事	-6488
真	-6489
速	-6490
知	-6491
影	-6492
云	-6493
青	-6494
刻	-6495
古	-6496
落	-6497
恐	-6498
接	-6499
才	-6500
直	-6501
暴	-6502
吧	-6503
宗	-6504
怕	-6505
今	-6506
因	-6507
庞	-6508
入	-6509
冷	-6510
难	-6511
形	-6512
乎	-6513
场	-6514
风	-6515
片	-6516
竟	-6517
什	-6518
狠	-6519
焰	-6520
许	-6521
惊	-6522
未	-6523
师	-6524
转	-6525
闪	-6526
加	-6527
化	-6528
里	-6529
她	-6530
随	-6531
正	-6532
先	-6533
沉	-6534
行	-6535
紧	-6536
虽	-6537
顿	-6538
同	-6539
本	-6540
神	-6541
倒	-6542
回	-6543
突	-6544
样	-6545
日	-6546
半	-6547
何	-6548
女	-6549
外	-6550
股	-6551
响	-6552
数	-6553
猛	-6554
步	-6555
十	-6556
东	-6557
呵	-6558
法	-6559
远	-6560
摇	-6561
比	-6562
隐	-6563
相	-6564
战	-6565
略	-6566
儿	-6567
听	-6568
令	-6569
紫	-6570
击	-6571
刚	-6572
向	-6573
至	-6574
音	-6575
算	-6576
更	-6577
势	-6578
伙	-6579
分	-6580
巨	-6581
星	-6582
涌	-6583
雷	-6584
修	-6585
住	-6586
觉	-6587
定	-6588
视	-6589
走	-6590
应	-6591
似	-6592
掠	-6593
啊	-6594
尊	-6595
越	-6596
波	-6597
且	-6598
死	-6599
嘴	-6600
清	-6601
妖	-6602
息	-6603
消	-6604
太	-6605
给	-6606
低	-6607
抹	-6608
情	-6609
红	-6610
连	-6611
帝	-6612
失	-6613
仅	-6614
果	-6615
美	-6616
打	-6617
己	-6618
高	-6619
显	-6620
用	-6621
双	-6622
殿	-6623
石	-6624
收	-6625
二	-6626
门	-6627
’	-6628
别	-6629
明	-6630
传	-6631
丝	-6632
制	-6633
犹	-6634
破	-6635
指	-6636
旁	-6637
四	-6638
深	-6639
全	-6640
散	-6641
魔	-6642
西	-6643
主	-6644
玉	-6645
凝	-6646
众	-6647
言	-6648
阵	-6649
离	-6650
满	-6651
院	-6652
尽	-6653
带	-6654
纳	-6655
依	-6656
眉	-6657
由	-6658
急	-6659
受	-6660
龙	-6661
脚	-6662
千	-6663
海	-6664
该	-6665
放	-6666
震	-6667
冲	-6668
兽	-6669
虚	-6670
静	-6671
周	-6672
围	-6673
杀	-6674
袍	-6675
爆	-6676
薰	-6677
必	-6678
提	-6679
毒	-6680
快	-6681
很	-6682
退	-6683
完	-6684
底	-6685
近	-6686
冰	-6687
终	-6688
角	-6689
容	-6690
仙	-6691
第	-6692
狂	-6693
逐	-6694
及	-6695
阴	-6696
莲	-6697
闻	-6698
王	-6699
吸	-6700
级	-6701
玄	-6702
扫	-6703
射	-6704
医	-6705
飞	-6706
足	-6707
蛇	-6708
断	-6709
居	-6710
喝	-6711
渐	-6712
毫	-6713
新	-6714
交	-6715
印	-6716
非	-6717
眸	-6718
浮	-6719
金	-6720
五	-6721
作	-6722
骨	-6723
彻	-6724
皱	-6725
芒	-6726
城	-6727
迅	-6728
候	-6729
怖	-6730
常	-6731
怒	-6732
压	-6733
留	-6734
脉	-6735
裂	-6736
阶	-6737
持	-6738
韩	-6739
平	-6740
张	-6741
忙	-6742
团	-6743
厉	-6744
疑	-6745
层	-6746
品	-6747
挥	-6748
翼	-6749
衣	-6750
反	-6751
达	-6752
寒	-6753
模	-6754
又	-6755
它	-6756
苦	-6757
叹	-6758
皇	-6759
拍	-6760
奇	-6761
水	-6762
错	-6763
握	-6764
物	-6765
确	-6766
域	-6767
忽	-6768
把	-6769
兰	-6770
林	-6771
拳	-6772
森	-6773
性	-6774
伤	-6775
轰	-6776
通	-6777
注	-6778
或	-6779
学	-6780
抬	-6781
立	-6782
待	-6783
停	-6784
功	-6785
圣	-6786
细	-6787
怎	-6788
始	-6789
关	-6790
流	-6791
月	-6792
曾	-6793
暗	-6794
敢	-6795
线	-6796
整	-6797
寻	-6798
盯	-6799
瞧	-6800
使	-6801
瞬	-6802
合	-6803
劲	-6804
升	-6805
需	-6806
岚	-6807
攻	-6808
材	-6809
颇	-6810
热	-6811
吞	-6812
尺	-6813
谷	-6814
安	-6815
毕	-6816
鼎	-6817
路	-6818
阁	-6819
九	-6820
取	-6821
忍	-6822
七	-6823
嘿	-6824
问	-6825
-	-6826
久	-6827
皆	-6828
绝	-6829
研	-6830
原	-6831
背	-6832
条	-6833
百	-6834
护	-6835
做	-6836
喜	-6837
精	-6838
干	-6839
尖	-6840
塔	-6841
找	-6842
台	-6843
岩	-6844
弱	-6845
怪	-6846
表	-6847
语	-6848
展	-6849
万	-6850
国	-6851
任	-6852
聚	-6853
状	-6854
段	-6855
部	-6856
跟	-6857
彩	-6858
杜	-6859
命	-6860
柳	-6861
利	-6862
藏	-6863
卷	-6864
洞	-6865
温	-6866
结	-6867
莎	-6868
凶	-6869
距	-6870
和	-6871
麻	-6872
坐	-6873
拥	-6874
喃	-6875
漫	-6876
败	-6877
悄	-6878
解	-6879
八	-6880
甚	-6881
楚	-6882
信	-6883
技	-6884
陨	-6885
威	-6886
苏	-6887
雾	-6888
盟	-6889
决	-6890
谁	-6891
广	-6892
续	-6893
颤	-6894
哥	-6895
则	-6896
吟	-6897
边	-6898
峰	-6899
花	-6900
特	-6901
男	-6902
松	-6903
顶	-6904
联	-6905
灰	-6906
枚	-6907
界	-6908
备	-6909
复	-6910
短	-6911
翻	-6912
弟	-6913
电	-6914
戒	-6915
易	-6916
站	-6917
铁	-6918
顺	-6919
机	-6920
举	-6921
液	-6922
苍	-6923
黄	-6924
质	-6925
鬼	-6926
呼	-6927
露	-6928
脑	-6929
弥	-6930
管	-6931
莫	-6932
烈	-6933
闭	-6934
银	-6935
陡	-6936
存	-6937
赶	-6938
格	-6939
透	-6940
奈	-6941
诡	-6942
漆	-6943
河	-6944
理	-6945
早	-6946
浑	-6947
故	-6948
记	-6949
料	-6950
绿	-6951
际	-6952
稳	-6953
差	-6954
腾	-6955
布	-6956
鳞	-6957
初	-6958
既	-6959
源	-6960
徐	-6961
陆	-6962
态	-6963
浓	-6964
引	-6965
怔	-6966
推	-6967
晶	-6968
睛	-6969
除	-6970
迟	-6971
叶	-6972
漠	-6973
凰	-6974
各	-6975
秘	-6976
撞	-6977
帮	-6978
焚	-6979
迹	-6980
保	-6981
乱	-6982
树	-6983
剧	-6984
抖	-6985
助	-6986
包	-6987
友	-6988
踏	-6989
盘	-6990
玛	-6991
六	-6992
荡	-6993
房	-6994
嫣	-6995
残	-6996
察	-6997
偏	-6998
每	-6999
充	-7000
悍	-7001
吐	-7002
嗤	-7003
置	-7004
队	-7005
具	-7006
横	-7007
咬	-7008
控	-7009
融	-7010
剑	-7011
投	-7012
旧	-7013
缘	-7014
份	-7015
眯	-7016
含	-7017
米	-7018
施	-7019
遇	-7020
亲	-7021
欢	-7022
程	-7023
叫	-7024
愣	-7025
枫	-7026
借	-7027
座	-7028
字	-7029
切	-7030
移	-7031
幕	-7032
属	-7033
噬	-7034
认	-7035
靠	-7036
卖	-7037
宛	-7038
傀	-7039
蟒	-7040
嗯	-7041
兵	-7042
幽	-7043
郁	-7044
群	-7045
尔	-7046
涨	-7047
请	-7048
木	-7049
缩	-7050
席	-7051
逃	-7052
愕	-7053
抓	-7054
骇	-7055
辈	-7056
欲	-7057
触	-7058
照	-7059
右	-7060
泛	-7061
霎	-7062
罩	-7063
皮	-7064
闹	-7065
往	-7066
蓝	-7067
根	-7068
瞳	-7069
况	-7070
臂	-7071
试	-7072
丈	-7073
疯	-7074
瞥	-7075
价	-7076
密	-7077
烦	-7078
牙	-7079
须	-7080
造	-7081
否	-7082
雅	-7083
灭	-7084
凭	-7085
抗	-7086
究	-7087
"	-7088
巴	-7089
扩	-7090
凌	-7091
炸	-7092
活	-7093
办	-7094
北	-7095
硬	-7096
耳	-7097
雪	-7098
伴	-7099
绕	-7100
焱	-7101
盖	-7102
弹	-7103
颊	-7104
左	-7105
致	-7106
境	-7107
幻	-7108
南	-7109
念	-7110
默	-7111
厅	-7112
总	-7113
服	-7114
崖	-7115
净	-7116
泉	-7117
迎	-7118
首	-7119
导	-7120
拿	-7121
浆	-7122
谓	-7123
炽	-7124
袖	-7125
熟	-7126
夫	-7127
巅	-7128
冥	-7129
柔	-7130
沙	-7131
险	-7132
准	-7133
佣	-7134
圈	-7135
州	-7136
效	-7137
延	-7138
测	-7139
蕴	-7140
抱	-7141
余	-7142
单	-7143
刺	-7144
书	-7145
员	-7146
狼	-7147
止	-7148
列	-7149
扭	-7150
毁	-7151
睁	-7152
番	-7153
尘	-7154
思	-7155
朋	-7156
运	-7157
鲜	-7158
杂	-7159
瓶	-7160
荒	-7161
缝	-7162
嘭	-7163
烁	-7164
追	-7165
穿	-7166
约	-7167
慕	-7168
姐	-7169
谢	-7170
斥	-7171
悬	-7172
擎	-7173
袋	-7174
挑	-7175
飘	-7176
骤	-7177
俏	-7178
曲	-7179
系	-7180
象	-7181
盛	-7182
哪	-7183
钟	-7184
按	-7185
裹	-7186
坚	-7187
领	-7188
世	-7189
另	-7190
激	-7191
眨	-7192
摆	-7193
混	-7194
拦	-7195
兴	-7196
范	-7197
掩	-7198
摸	-7199
痛	-7200
胜	-7201
蝎	-7202
碧	-7203
跳	-7204
严	-7205
碎	-7206
喷	-7207
超	-7208
狗	-7209
章	-7210
胸	-7211
招	-7212
支	-7213
吃	-7214
哼	-7215
柱	-7216
率	-7217
味	-7218
菩	-7219
代	-7220
脱	-7221
纹	-7222
称	-7223
付	-7224
抵	-7225
阻	-7226
抽	-7227
选	-7228
期	-7229
缕	-7230
妃	-7231
韵	-7232
封	-7233
雄	-7234
元	-7235
醒	-7236
曹	-7237
遥	-7238
费	-7239
寂	-7240
洪	-7241
拼	-7242
滚	-7243
齐	-7244
像	-7245
荐	-7246
吼	-7247
掉	-7248
砸	-7249
惨	-7250
报	-7251
赫	-7252
娇	-7253
固	-7254
阅	-7255
块	-7256
防	-7257
浪	-7258
呢	-7259
碰	-7260
欣	-7261
惑	-7262
躯	-7263
锁	-7264
室	-7265
简	-7266
哈	-7267
伸	-7268
资	-7269
军	-7270
额	-7271
唯	-7272
呆	-7273
《	-7274
市	-7275
废	-7276
肉	-7277
探	-7278
孩	-7279
继	-7280
图	-7281
晌	-7282
吴	-7283
刀	-7284
御	-7285
》	-7286
怀	-7287
核	-7288
肩	-7289
辰	-7290
闷	-7291
晋	-7292
马	-7293
兄	-7294
赛	-7295
粉	-7296
休	-7297
练	-7298
承	-7299
铺	-7300
啸	-7301
狞	-7302
轴	-7303
题	-7304
奥	-7305
滴	-7306
公	-7307
历	-7308
客	-7309
负	-7310
避	-7311
夜	-7312
迦	-7313
拉	-7314
划	-7315
罗	-7316
乌	-7317
句	-7318
敌	-7319
某	-7320
订	-7321
鹰	-7322
振	-7323
阳	-7324
换	-7325
识	-7326
局	-7327
宝	-7328
窜	-7329
锐	-7330
排	-7331
佛	-7332
争	-7333
耗	-7334
类	-7335
区	-7336
求	-7337
慢	-7338
观	-7339
壁	-7340
土	-7341
幸	-7342
惧	-7343
烧	-7344
担	-7345
枪	-7346
府	-7347
遭	-7348
件	-7349
凉	-7350
赋	-7351
据	-7352
枯	-7353
副	-7354
诧	-7355
陷	-7356
凤	-7357
狮	-7358
颜	-7359
谈	-7360
浩	-7361
危	-7362
稀	-7363
弄	-7364
桀	-7365
倾	-7366
唐	-7367
翎	-7368
虎	-7369
昊	-7370
笼	-7371
论	-7372
亮	-7373
独	-7374
闲	-7375
贵	-7376
参	-7377
摊	-7378
降	-7379
糊	-7380
束	-7381
稍	-7382
犸	-7383
忌	-7384
规	-7385
滞	-7386
痕	-7387
诸	-7388
唉	-7389
墨	-7390
扬	-7391
扯	-7392
蔓	-7393
甩	-7394
遗	-7395
调	-7396
困	-7397
迫	-7398
归	-7399
守	-7400
唇	-7401
厚	-7402
锋	-7403
丽	-7404
墓	-7405
媚	-7406
仿	-7407
减	-7408
告	-7409
悉	-7410
拱	-7411
薄	-7412
砰	-7413
缭	-7414
、	-7415
宽	-7416
氛	-7417
甲	-7418
送	-7419
答	-7420
脆	-7421
验	-7422
托	-7423
屈	-7424
摘	-7425
端	-7426
父	-7427
挺	-7428
害	-7429
希	-7430
纤	-7431
腿	-7432
瞟	-7433
缠	-7434
闯	-7435
圆	-7436
汇	-7437
嘶	-7438
骂	-7439
耸	-7440
狰	-7441
建	-7442
衡	-7443
汗	-7444
爷	-7445
匹	-7446
救	-7447
懒	-7448
恭	-7449
跑	-7450
偶	-7451
僵	-7452
智	-7453
毛	-7454
拖	-7455
丢	-7456
琥	-7457
票	-7458
池	-7459
夺	-7460
熊	-7461
撇	-7462
躲	-7463
免	-7464
妙	-7465
尚	-7466
弃	-7467
临	-7468
敬	-7469
惜	-7470
磅	-7471
膀	-7472
纯	-7473
插	-7474
软	-7475
搞	-7476
派	-7477
岛	-7478
怨	-7479
礴	-7480
颖	-7481
释	-7482
亡	-7483
伍	-7484
赤	-7485
舍	-7486
鸣	-7487
轮	-7488
崩	-7489
磐	-7490
侵	-7491
衫	-7492
貌	-7493
香	-7494
途	-7495
尸	-7496
傲	-7497
跃	-7498
愧	-7499
桌	-7500
涎	-7501
环	-7502
儡	-7503
钻	-7504
养	-7505
润	-7506
获	-7507
式	-7508
瞪	-7509
集	-7510
魅	-7511
卫	-7512
惮	-7513
予	-7514
讶	-7515
择	-7516
祖	-7517
镇	-7518
卡	-7519
撕	-7520
蛋	-7521
榜	-7522
绪	-7523
胡	-7524
(	-7525
棱	-7526
椅	-7527
隔	-7528
噗	-7529
旦	-7530
哗	-7531
器	-7532
抢	-7533
坏	-7534
球	-7535
芝	-7536
趣	-7537
哦	-7538
肯	-7539
型	-7540
洒	-7541
狈	-7542
腰	-7543
占	-7544
戏	-7545
爪	-7546
倍	-7547
增	-7548
琳	-7549
网	-7550
链	-7551
龄	-7552
凄	-7553
胆	-7554
凡	-7555
损	-7556
艳	-7557
偷	-7558
考	-7559
厄	-7560
孔	-7561
啧	-7562
漪	-7563
顾	-7564
号	-7565
恶	-7566
斑	-7567
迷	-7568
;	-7569
涟	-7570
喉	-7571
恢	-7572
隆	-7573
撼	-7574
茫	-7575
虫	-7576
豆	-7577
游	-7578
潮	-7579
较	-7580
穆	-7581
诱	-7582
咙	-7583
截	-7584
拔	-7585
玩	-7586
草	-7587
垂	-7588
耀	-7589
「	-7590
塞	-7591
驱	-7592
乃	-7593
冒	-7594
愿	-7595
积	-7596
车	-7597
基	-7598
墙	-7599
弧	-7600
限	-7601
岁	-7602
渗	-7603
珠	-7604
召	-7605
您	-7606
讽	-7607
窃	-7608
瀚	-7609
扑	-7610
疼	-7611
值	-7612
暂	-7613
朵	-7614
配	-7615
咳	-7616
灌	-7617
烛	-7618
慎	-7619
拒	-7620
楼	-7621
创	-7622
陌	-7623
奔	-7624
挣	-7625
粗	-7626
惹	-7627
晨	-7628
统	-7629
优	-7630
秀	-7631
‘	-7632
堪	-7633
忘	-7634
牢	-7635
附	-7636
互	-7637
扎	-7638
饰	-7639
幅	-7640
殊	-7641
坦	-7642
术	-7643
辣	-7644
尾	-7645
徽	-7646
霆	-7647
甘	-7648
野	-7649
舞	-7650
宁	-7651
嘉	-7652
假	-7653
华	-7654
夹	-7655
潜	-7656
烟	-7657
袭	-7658
遮	-7659
齿	-7660
柄	-7661
肤	-7662
查	-7663
操	-7664
姚	-7665
议	-7666
掀	-7667
牌	-7668
覆	-7669
输	-7670
遍	-7671
抚	-7672
标	-7673
笔	-7674
膛	-7675
觑	-7676
霸	-7677
枭	-7678
骸	-7679
敛	-7680
晃	-7681
乐	-7682
汉	-7683
泽	-7684
腥	-7685
嘲	-7686
抑	-7687
瘦	-7688
☆	-7689
斜	-7690
煞	-7691
菲	-7692
逝	-7693
丰	-7694
璀	-7695
痨	-7696
装	-7697
普	-7698
璨	-7699
奋	-7700
壮	-7701
末	-7702
罕	-7703
舌	-7704
计	-7705
涩	-7706
罪	-7707
莽	-7708
武	-7709
预	-7710
咆	-7711
哮	-7712
恨	-7713
磨	-7714
晚	-7715
习	-7716
弯	-7717
株	-7718
夭	-7719
)	-7720
仰	-7721
彼	-7722
畏	-7723
碍	-7724
礼	-7725
贴	-7726
咽	-7727
启	-7728
恩	-7729
唤	-7730
克	-7731
径	-7732
愤	-7733
沿	-7734
雁	-7735
劈	-7736
珍	-7737
蛮	-7738
慌	-7739
猜	-7740
鼻	-7741
堂	-7742
滑	-7743
陀	-7744
雨	-7745
哑	-7746
喊	-7747
揉	-7748
适	-7749
钱	-7750
堆	-7751
抛	-7752
敞	-7753
湖	-7754
乳	-7755
街	-7756
n	-7757
啦	-7758
歉	-7759
耐	-7760
兀	-7761
扰	-7762
瞑	-7763
索	-7764
罢	-7765
颗	-7766
挡	-7767
溢	-7768
舔	-7769
踪	-7770
逼	-7771
s	-7772
亏	-7773
善	-7774
抿	-7775
板	-7776
箭	-7777
篷	-7778
买	-7779
剩	-7780
蒙	-7781
省	-7782
蚀	-7783
促	-7784
咔	-7785
撑	-7786
昏	-7787
竞	-7788
鹜	-7789
呜	-7790
教	-7791
—	-7792
刑	-7793
扇	-7794
烬	-7795
咻	-7796
竭	-7797
~	-7798
染	-7799
蠕	-7800
噙	-7801
浅	-7802
坊	-7803
盒	-7804
讨	-7805
谨	-7806
务	-7807
吹	-7808
茶	-7809
裙	-7810
牵	-7811
央	-7812
文	-7813
呃	-7814
床	-7815
敏	-7816
节	-7817
仇	-7818
私	-7819
贝	-7820
爱	-7821
矩	-7822
素	-7823
1	-7824
景	-7825
潭	-7826
符	-7827
粘	-7828
努	-7829
疗	-7830
勉	-7831
产	-7832
执	-7833
赞	-7834
黯	-7835
冠	-7836
杯	-7837
警	-7838
盈	-7839
仔	-7840
催	-7841
削	-7842
呈	-7843
慰	-7844
诉	-7845
货	-7846
乾	-7847
伊	-7848
伐	-7849
届	-7850
疲	-7851
嘀	-7852
沾	-7853
绷	-7854
补	-7855
恍	-7856
丧	-7857
屑	-7858
睡	-7859
肆	-7860
拾	-7861
搜	-7862
权	-7863
障	-7864
碑	-7865
跺	-7866
雏	-7867
套	-7868
尬	-7869
尴	-7870
证	-7871
批	-7872
溃	-7873
梭	-7874
淬	-7875
骚	-7876
璃	-7877
咕	-7878
捏	-7879
码	-7880
黛	-7881
搐	-7882
纠	-7883
舒	-7884
擒	-7885
沈	-7886
湮	-7887
淌	-7888
熏	-7889
船	-7890
嫩	-7891
挤	-7892
蹙	-7893
凑	-7894
永	-7895
脏	-7896
|	-7897
硕	-7898
簇	-7899
吱	-7900
替	-7901
爬	-7902
肃	-7903
♀	-7904
妹	-7905
改	-7906
油	-7907
祸	-7908
胁	-7909
屁	-7910
屋	-7911
涧	-7912
焦	-7913
羡	-7914
姿	-7915
寸	-7916
阔	-7917
侧	-7918
坑	-7919
琉	-7920
褐	-7921
贪	-7922
轩	-7923
鸟	-7924
折	-7925
烤	-7926
蹬	-7927
晰	-7928
洗	-7929
灯	-7930
嚣	-7931
挂	-7932
递	-7933
咂	-7934
商	-7935
喧	-7936
携	-7937
沫	-7938
h	-7939
伏	-7940
咐	-7941
帐	-7942
灼	-7943
雕	-7944
#	-7945
悠	-7946
傻	-7947
捕	-7948
蠢	-7949
陪	-7950
士	-7951
岂	-7952
巧	-7953
豁	-7954
邪	-7955
漂	-7956
唾	-7957
禁	-7958
刃	-7959
燃	-7960
摧	-7961
鼠	-7962
攀	-7963
胀	-7964
躁	-7965
撤	-7966
朝	-7967
营	-7968
镜	-7969
丘	-7970
搽	-7971
稚	-7972
i	-7973
咧	-7974
忆	-7975
朗	-7976
』	-7977
倩	-7978
工	-7979
潇	-7980
竖	-7981
组	-7982
讪	-7983
训	-7984
鸾	-7985
乖	-7986
畅	-7987
骼	-7988
措	-7989
暖	-7990
枝	-7991
泥	-7992
累	-7993
专	-7994
嚓	-7995
筑	-7996
绵	-7997
	-7998
梯	-7999
责	-8000
拢	-8001
肚	-8002
盆	-8003
缺	-8004
脖	-8005
苗	-8006
/	-8007
丫	-8008
奉	-8009
妮	-8010
溜	-8011
猎	-8012
询	-8013
顷	-8014
飙	-8015
炉	-8016
罡	-8017
灾	-8018
喘	-8019
殷	-8020
羞	-8021
豪	-8022
慑	-8023
敲	-8024
纪	-8025
讥	-8026
锤	-8027
霉	-8028
魄	-8029
搓	-8030
翠	-8031
膨	-8032
汹	-8033
袅	-8034
误	-8035
凹	-8036
庄	-8037
庆	-8038
澎	-8039
采	-8040
鱼	-8041
示	-8042
繁	-8043
隙	-8044
妄	-8045
艰	-8046
a	-8047
拜	-8048
湃	-8049
纸	-8050
趁	-8051
辛	-8052
勾	-8053
坤	-8054
培	-8055
捎	-8056
穷	-8057
逊	-8058
介	-8059
嗡	-8060
奴	-8061
矗	-8062
赢	-8063
侍	-8064
厌	-8065
斩	-8066
晓	-8067
榻	-8068
皓	-8069
稠	-8070
绚	-8071
聊	-8072
售	-8073
烂	-8074
谑	-8075
购	-8076
铠	-8077
佩	-8078
币	-8079
络	-8080
%	-8081
妈	-8082
欺	-8083
括	-8084
睽	-8085
设	-8086
婪	-8087
富	-8088
戾	-8089
棘	-8090
漩	-8091
织	-8092
掺	-8093
洋	-8094
猿	-8095
跨	-8096
爽	-8097
腐	-8098
鼓	-8099
吩	-8100
涡	-8101
零	-8102
宜	-8103
宣	-8104
悔	-8105
翅	-8106
享	-8107
例	-8108
咦	-8109
虑	-8110
供	-8111
侥	-8112
宾	-8113
懂	-8114
捷	-8115
滔	-8116
蚁	-8117
义	-8118
匆	-8119
哭	-8120
晕	-8121
葛	-8122
葬	-8123
邀	-8124
绩	-8125
葱	-8126
食	-8127
l	-8128
仗	-8129
凛	-8130
喏	-8131
寥	-8132
架	-8133
棍	-8134
福	-8135
婚	-8136
宋	-8137
岗	-8138
筹	-8139
辱	-8140
梦	-8141
竹	-8142
豫	-8143
6	-8144
乏	-8145
俊	-8146
嘎	-8147
屏	-8148
肌	-8149
坠	-8150
妩	-8151
弗	-8152
牛	-8153
孤	-8154
沸	-8155
灿	-8156
躺	-8157
辞	-8158
共	-8159
契	-8160
戈	-8161
维	-8162
昨	-8163
洁	-8164
萎	-8165
顽	-8166
c	-8167
x	-8168
吗	-8169
园	-8170
恼	-8171
朴	-8172
写	-8173
嗅	-8174
惯	-8175
泊	-8176
佳	-8177
叔	-8178
叮	-8179
君	-8180
宇	-8181
愈	-8182
良	-8183
郑	-8184
悲	-8185
桩	-8186
跪	-8187
狡	-8188
窗	-8189
0	-8190
判	-8191
叉	-8192
塌	-8193
拂	-8194
春	-8195
燥	-8196
膝	-8197
蒸	-8198
郝	-8199
p	-8200
丛	-8201
刁	-8202
囦	-8203
埋	-8204
泡	-8205
骷	-8206
髓	-8207
鹫	-8208
_	-8209
o	-8210
啪	-8211
娆	-8212
歇	-8213
泄	-8214
登	-8215
辽	-8216
媲	-8217
怜	-8218
矛	-8219
酸	-8220
业	-8221
堵	-8222
惕	-8223
秒	-8224
针	-8225
溅	-8226
炙	-8227
荣	-8228
载	-8229
婴	-8230
援	-8231
腹	-8232
辨	-8233
酒	-8234
锦	-8235
咯	-8236
杰	-8237
检	-8238
涛	-8239
犯	-8240
狐	-8241
舟	-8242
饶	-8243
仪	-8244
膜	-8245
评	-8246
辩	-8247
构	-8248
牧	-8249
虐	-8250
读	-8251
陵	-8252
j	-8253
u	-8254
刮	-8255
刹	-8256
吓	-8257
母	-8258
炮	-8259
眈	-8260
键	-8261
晦	-8262
趟	-8263
铜	-8264
劫	-8265
尝	-8266
搏	-8267
添	-8268
蜥	-8269
蜴	-8270
ú	-8271
叠	-8272
掏	-8273
斧	-8274
陛	-8275
髅	-8276
嘛	-8277
浊	-8278
鞭	-8279
僻	-8280
缚	-8281
英	-8282
俯	-8283
徊	-8284
惫	-8285
烙	-8286
烫	-8287
砍	-8288
踢	-8289
蹦	-8290
销	-8291
妇	-8292
徒	-8293
徘	-8294
湿	-8295
猩	-8296
嘻	-8297
忧	-8298
盼	-8299
踞	-8300
y	-8301
悸	-8302
迈	-8303
铛	-8304
劳	-8305
匕	-8306
怯	-8307
澈	-8308
瓜	-8309
籍	-8310
绽	-8311
蜈	-8312
账	-8313
志	-8314
捧	-8315
纱	-8316
佼	-8317
拇	-8318
炫	-8319
盾	-8320
绯	-8321
霜	-8322
靡	-8323
r	-8324
呐	-8325
嗽	-8326
廊	-8327
怠	-8328
悦	-8329
治	-8330
漾	-8331
穹	-8332
翡	-8333
侯	-8334
俗	-8335
慵	-8336
憾	-8337
斯	-8338
骄	-8339
鹤	-8340
午	-8341
嘟	-8342
婆	-8343
店	-8344
殆	-8345
琐	-8346
畜	-8347
颓	-8348
驳	-8349
凸	-8350
吵	-8351
嫉	-8352
挽	-8353
搭	-8354
画	-8355
祭	-8356
职	-8357
蛟	-8358
丸	-8359
戴	-8360
擅	-8361
沟	-8362
泰	-8363
莹	-8364
蔚	-8365
蔽	-8366
项	-8367
^	-8368
剔	-8369
夏	-8370
挲	-8371
晴	-8372
朽	-8373
涂	-8374
渡	-8375
纵	-8376
偿	-8377
嗦	-8378
征	-8379
惋	-8380
旷	-8381
泻	-8382
粒	-8383
耍	-8384
苛	-8385
2	-8386
9	-8387
拐	-8388
绍	-8389
藤	-8390
唰	-8391
坛	-8392
杆	-8393
栽	-8394
欠	-8395
盔	-8396
循	-8397
鸡	-8398
〗	-8399
尼	-8400
摩	-8401
敖	-8402
眩	-8403
肢	-8404
逆	-8405
4	-8406
井	-8407
哆	-8408
柜	-8409
绘	-8410
苓	-8411
酬	-8412
8	-8413
亭	-8414
匿	-8415
庭	-8416
曼	-8417
淋	-8418
渊	-8419
漏	-8420
熬	-8421
茧	-8422
7	-8423
■	-8424
割	-8425
妒	-8426
尤	-8427
煅	-8428
甜	-8429
疤	-8430
词	-8431
趋	-8432
冉	-8433
宰	-8434
弩	-8435
户	-8436
紊	-8437
臭	-8438
衅	-8439
健	-8440
妥	-8441
库	-8442
弓	-8443
版	-8444
筋	-8445
翘	-8446
迸	-8447
阿	-8448
卸	-8449
廷	-8450
扶	-8451
斓	-8452
渺	-8453
痊	-8454
皙	-8455
糟	-8456
脾	-8457
腕	-8458
赏	-8459
农	-8460
屠	-8461
撒	-8462
瀑	-8463
瞩	-8464
醉	-8465
刷	-8466
劝	-8467
官	-8468
庸	-8469
披	-8470
讲	-8471
逛	-8472
雀	-8473
颅	-8474
颢	-8475
k	-8476
兆	-8477
咫	-8478
嗜	-8479
坡	-8480
娘	-8481
崇	-8482
悟	-8483
藉	-8484
踩	-8485
霍	-8486
倔	-8487
墟	-8488
帘	-8489
描	-8490
映	-8491
案	-8492
概	-8493
贯	-8494
娃	-8495
昂	-8496
滋	-8497
穴	-8498
耻	-8499
蹲	-8500
3	-8501
刘	-8502
叱	-8503
峦	-8504
钢	-8505
乍	-8506
囚	-8507
恃	-8508
捂	-8509
秋	-8510
诞	-8511
躬	-8512
è	-8513
储	-8514
嗔	-8515
妪	-8516
忐	-8517
忑	-8518
戮	-8519
羊	-8520
羽	-8521
萦	-8522
财	-8523
倦	-8524
嚎	-8525
惚	-8526
扣	-8527
瞒	-8528
裁	-8529
详	-8530
驻	-8531
叨	-8532
哀	-8533
嘘	-8534
孕	-8535
忿	-8536
犬	-8537
猾	-8538
痴	-8539
磋	-8540
茅	-8541
酿	-8542
龟	-8543
典	-8544
剿	-8545
挨	-8546
杨	-8547
爹	-8548
监	-8549
荧	-8550
轨	-8551
驾	-8552
黝	-8553
〖	-8554
噶	-8555
捡	-8556
邃	-8557
酝	-8558
幼	-8559
序	-8560
民	-8561
窝	-8562
衍	-8563
锻	-8564
e	-8565
勒	-8566
协	-8567
泪	-8568
褪	-8569
遣	-8570
酷	-8571
仓	-8572
估	-8573
允	-8574
叽	-8575
圉	-8576
暝	-8577
胎	-8578
螺	-8579
铸	-8580
啥	-8581
巡	-8582
杖	-8583
蜕	-8584
邙	-8585
鲁	-8586
勃	-8587
匙	-8588
噼	-8589
寿	-8590
曜	-8591
济	-8592
漓	-8593
粹	-8594
聋	-8595
腻	-8596
蜂	-8597
蝼	-8598
衬	-8599
锵	-8600
韧	-8601
d	-8602
喻	-8603
嫌	-8604
庇	-8605
录	-8606
捣	-8607
罚	-8608
赌	-8609
赔	-8610
钥	-8611
$	-8612
史	-8613
嘱	-8614
悚	-8615
狭	-8616
瘫	-8617
辉	-8618
咋	-8619
嗓	-8620
囔	-8621
峭	-8622
渲	-8623
童	-8624
策	-8625
茂	-8626
衰	-8627
诀	-8628
诈	-8629
逸	-8630
霄	-8631
b	-8632
囊	-8633
塑	-8634
孙	-8635
慈	-8636
慧	-8637
誉	-8638
劣	-8639
哨	-8640
巢	-8641
廓	-8642
懈	-8643
揽	-8644
搂	-8645
昵	-8646
植	-8647
毙	-8648
汐	-8649
澜	-8650
耽	-8651
肖	-8652
踉	-8653
锊	-8654
鸦	-8655
g	-8656
俩	-8657
嘹	-8658
嚼	-8659
奖	-8660
恙	-8661
疏	-8662
症	-8663
眷	-8664
绸	-8665
缎	-8666
菱	-8667
著	-8668
返	-8669
博	-8670
夙	-8671
奏	-8672
帕	-8673
恋	-8674
患	-8675
愚	-8676
搁	-8677
督	-8678
睫	-8679
缴	-8680
颈	-8681
圝	-8682
帆	-8683
毅	-8684
班	-8685
痒	-8686
益	-8687
签	-8688
黎	-8689
m	-8690
卜	-8691
w	-8692
丁	-8693
仆	-8694
冻	-8695
奶	-8696
涯	-8697
讳	-8698
跄	-8699
辜	-8700
鉴	-8701
卑	-8702
叛	-8703
唱	-8704
嘁	-8705
奸	-8706
宠	-8707
桑	-8708
欧	-8709
田	-8710
览	-8711
酥	-8712
阎	-8713
偻	-8714
姓	-8715
巍	-8716
弦	-8717
徼	-8718
播	-8719
沦	-8720
沼	-8721
猴	-8722
眺	-8723
秦	-8724
誓	-8725
诚	-8726
赖	-8727
逞	-8728
饱	-8729
卧	-8730
呻	-8731
哇	-8732
噜	-8733
奢	-8734
岔	-8735
德	-8736
淤	-8737
肋	-8738
蛛	-8739
蜘	-8740
骑	-8741
『	-8742
匍	-8743
匐	-8744
咎	-8745
奎	-8746
婉	-8747
帖	-8748
搬	-8749
灸	-8750
盐	-8751
窥	-8752
粟	-8753
荫	-8754
访	-8755
蹄	-8756
躇	-8757
辅	-8758
辟	-8759
逗	-8760
t	-8761
丑	-8762
寨	-8763
恳	-8764
挫	-8765
撵	-8766
演	-8767
献	-8768
肥	-8769
胖	-8770
诣	-8771
踌	-8772
逻	-8773
驰	-8774
α	-8775
佑	-8776
屹	-8777
弊	-8778
掷	-8779
槽	-8780
淘	-8781
炭	-8782
炱	-8783
燎	-8784
碌	-8785
薛	-8786
迳	-8787
馆	-8788
&	-8789
委	-8790
拘	-8791
挖	-8792
旅	-8793
猫	-8794
稽	-8795
绞	-8796
育	-8797
菜	-8798
蚂	-8799
赴	-8800
违	-8801
邋	-8802
伦	-8803
俱	-8804
悻	-8805
玲	-8806
疾	-8807
虹	-8808
裸	-8809
遑	-8810
邱	-8811
馈	-8812
骜	-8813
倪	-8814
债	-8815
冤	-8816
剌	-8817
孽	-8818
扛	-8819
斋	-8820
栏	-8821
桃	-8822
歪	-8823
沧	-8824
浏	-8825
煦	-8826
熔	-8827
祝	-8828
翳	-8829
贺	-8830
蹭	-8831
颠	-8832
伪	-8833
吉	-8834
咒	-8835
喂	-8836
壑	-8837
壶	-8838
栩	-8839
泼	-8840
瓦	-8841
矫	-8842
翌	-8843
耿	-8844
肘	-8845
胃	-8846
谦	-8847
跋	-8848
}	-8849
ā	-8850
伟	-8851
傅	-8852
勤	-8853
唧	-8854
屡	-8855
渠	-8856
瞎	-8857
胞	-8858
蚕	-8859
铃	-8860
饭	-8861
麦	-8862
嫁	-8863
宿	-8864
峡	-8865
峻	-8866
惩	-8867
惭	-8868
旗	-8869
狱	-8870
病	-8871
祷	-8872
绰	-8873
聪	-8874
脯	-8875
赚	-8876
遁	-8877
锥	-8878
乘	-8879
勇	-8880
卿	-8881
妨	-8882
悯	-8883
愉	-8884
揭	-8885
涵	-8886
狸	-8887
珑	-8888
瘪	-8889
祈	-8890
编	-8891
蜒	-8892
蜿	-8893
蝠	-8894
趴	-8895
·	-8896
倚	-8897
咚	-8898
夕	-8899
惶	-8900
梁	-8901
渣	-8902
眠	-8903
裔	-8904
迁	-8905
迢	-8906
邵	-8907
驯	-8908
[	-8909
]	-8910
丅	-8911
剐	-8912
厮	-8913
哄	-8914
圾	-8915
垃	-8916
姑	-8917
淫	-8918
箱	-8919
绳	-8920
臀	-8921
茬	-8922
衷	-8923
豹	-8924
频	-8925
饮	-8926
鹿	-8927
僧	-8928
兔	-8929
唏	-8930
填	-8931
律	-8932
拙	-8933
棵	-8934
棺	-8935
猖	-8936
纷	-8937
胶	-8938
腔	-8939
莞	-8940
励	-8941
勺	-8942
厢	-8943
唆	-8944
壤	-8945
奂	-8946
妻	-8947
岭	-8948
怡	-8949
恬	-8950
昌	-8951
析	-8952
琢	-8953
糙	-8954
蓄	-8955
蚣	-8956
蝇	-8957
俨	-8958
厂	-8959
叙	-8960
吊	-8961
审	-8962
寄	-8963
寝	-8964
彪	-8965
戟	-8966
拨	-8967
掂	-8968
档	-8969
缉	-8970
膏	-8971
菇	-8972
裕	-8973
鲲	-8974
～	-8975
侄	-8976
啼	-8977
寞	-8978
押	-8979
拎	-8980
朦	-8981
枉	-8982
江	-8983
涉	-8984
笨	-8985
筛	-8986
迂	-8987
黏	-8988
<	-8989
≥	-8990
伞	-8991
卵	-8992
吆	-8993
吝	-8994
唳	-8995
啃	-8996
噪	-8997
夷	-8998
寐	-8999
帅	-9000
憋	-9001
扈	-9002
斟	-9003
滩	-9004
胧	-9005
蒂	-9006
遂	-9007
锯	-9008
骗	-9009
亚	-9010
咄	-9011
囡	-9012
囹	-9013
垩	-9014
戚	-9015
擦	-9016
碜	-9017
禀	-9018
秽	-9019
衔	-9020
谋	-9021
谰	-9022
谱	-9023
跌	-9024
蹿	-9025
辙	-9026
迪	-9027
钳	-9028
饿	-9029
5	-9030
f	-9031
兢	-9032
孰	-9033
憨	-9034
抡	-9035
拯	-9036
搅	-9037
暇	-9038
橄	-9039
款	-9040
歹	-9041
溪	-9042
睑	-9043
碗	-9044
科	-9045
艺	-9046
萃	-9047
褶	-9048
隅	-9049
雍	-9050
麾	-9051
{	-9052
伯	-9053
伺	-9054
噩	-9055
堡	-9056
夸	-9057
敷	-9058
柴	-9059
棒	-9060
汤	-9061
焕	-9062
疚	-9063
盗	-9064
祟	-9065
翔	-9066
茎	-9067
蛆	-9068
诅	-9069
遢	-9070
飓	-9071
麟	-9072
司	-9073
垮	-9074
婿	-9075
嬉	-9076
弘	-9077
惔	-9078
拭	-9079
汰	-9080
焉	-9081
筝	-9082
舱	-9083
芥	-9084
蝶	-9085
谅	-9086
贡	-9087
赠	-9088
辆	-9089
遵	-9090
钉	-9091
阑	-9092
餐	-9093
ì	-9094
乡	-9095
剥	-9096
匪	-9097
屿	-9098
崛	-9099
扮	-9100
拄	-9101
揍	-9102
擂	-9103
晒	-9104
氏	-9105
矢	-9106
篇	-9107
篝	-9108
肠	-9109
胄	-9110
蛙	-9111
谜	-9112
跗	-9113
逮	-9114
馋	-9115
\	-9116
兼	-9117
勿	-9118
咸	-9119
哎	-9120
唔	-9121
嗥	-9122
噔	-9123
坳	-9124
壳	-9125
媳	-9126
慨	-9127
捆	-9128
斤	-9129
歧	-9130
毋	-9131
洲	-9132
浇	-9133
熄	-9134
瑕	-9135
窄	-9136
糕	-9137
绫	-9138
耒	-9139
芙	-9140
贩	-9141
鄙	-9142
鲸	-9143
>	-9144
q	-9145
↓	-9146
┅	-9147
】	-9148
佯	-9149
兮	-9150
刨	-9151
匾	-9152
哧	-9153
嗷	-9154
址	-9155
垫	-9156
奕	-9157
寡	-9158
嵌	-9159
扳	-9160
捅	-9161
捞	-9162
摔	-9163
沓	-9164
沮	-9165
洼	-9166
渍	-9167
渔	-9168
疮	-9169
瘴	-9170
眶	-9171
窈	-9172
窕	-9173
糨	-9174
聘	-9175
脂	-9176
舵	-9177
荷	-9178
郧	-9179
锅	-9180
κ	-9181
【	-9182
侮	-9183
吁	-9184
啬	-9185
巫	-9186
康	-9187
拆	-9188
拈	-9189
昼	-9190
曳	-9191
村	-9192
梢	-9193
毯	-9194
盅	-9195
盎	-9196
笛	-9197
簸	-9198
绎	-9199
肿	-9200
腮	-9201
蘑	-9202
贱	-9203
醇	-9204
驭	-9205
鹏	-9206
佝	-9207
妾	-9208
宫	-9209
宴	-9210
履	-9211
恒	-9212
掐	-9213
掘	-9214
掣	-9215
擘	-9216
旬	-9217
昙	-9218
械	-9219
浴	-9220
溶	-9221
熙	-9222
瑰	-9223
甸	-9224
睹	-9225
磁	-9226
篮	-9227
苟	-9228
踹	-9229
辫	-9230
陋	-9231
雳	-9232
页	-9233
鸿	-9234
黠	-9235
χ	-9236
○	-9237
亵	-9238
呛	-9239
呸	-9240
咤	-9241
嗒	-9242
坎	-9243
婢	-9244
幢	-9245
怅	-9246
柿	-9247
渴	-9248
滥	-9249
瓣	-9250
瘩	-9251
筒	-9252
芋	-9253
蓬	-9254
蜗	-9255
觅	-9256
觋	-9257
谊	-9258
赐	-9259
跻	-9260
逢	-9261
锈	-9262
霹	-9263
魁	-9264
鲨	-9265
v	-9266
à	-9267
兜	-9268
冬	-9269
剁	-9270
呕	-9271
喇	-9272
帷	-9273
惦	-9274
昝	-9275
栗	-9276
汁	-9277
沛	-9278
泣	-9279
疫	-9280
础	-9281
秩	-9282
耷	-9283
膊	-9284
诺	-9285
陶	-9286
鞋	-9287
驮	-9288
'	-9289
м	-9290
丵	-9291
乒	-9292
冽	-9293
卓	-9294
吻	-9295
哒	-9296
哟	-9297
庋	-9298
忠	-9299
愁	-9300
抠	-9301
捉	-9302
擞	-9303
昔	-9304
枕	-9305
椎	-9306
沌	-9307
漱	-9308
煎	-9309
獠	-9310
磕	-9311
秃	-9312
穑	-9313
窍	-9314
簌	-9315
董	-9316
讯	-9317
谩	-9318
贼	-9319
赘	-9320
镶	-9321
颦	-9322
魇	-9323
C	-9324
°	-9325
亐	-9326
亢	-9327
妁	-9328
姗	-9329
娶	-9330
岌	-9331
峨	-9332
崽	-9333
巾	-9334
帽	-9335
怂	-9336
搀	-9337
旺	-9338
栈	-9339
槁	-9340
涮	-9341
猪	-9342
玻	-9343
疙	-9344
疵	-9345
硌	-9346
税	-9347
稻	-9348
罐	-9349
胳	-9350
蒲	-9351
谬	-9352
遏	-9353
铲	-9354
驼	-9355
=	-9356
乙	-9357
伎	-9358
俸	-9359
函	-9360
哐	-9361
屎	-9362
懊	-9363
摞	-9364
撅	-9365
撩	-9366
曰	-9367
殃	-9368
殉	-9369
污	-9370
汪	-9371
津	-9372
烘	-9373
犀	-9374
痪	-9375
矜	-9376
祁	-9377
窒	-9378
糖	-9379
绁	-9380
绒	-9381
综	-9382
缀	-9383
翁	-9384
臣	-9385
虾	-9386
蜷	-9387
蝴	-9388
谄	-9389
邳	-9390
铭	-9391
鞠	-9392
鳅	-9393
鸭	-9394
〕	-9395
亍	-9396
亿	-9397
党	-9398
剪	-9399
咱	-9400
垒	-9401
姻	-9402
寇	-9403
恹	-9404
戳	-9405
挪	-9406
撮	-9407
榨	-9408
淀	-9409
盏	-9410
睐	-9411
睚	-9412
祥	-9413
箫	-9414
篑	-9415
糅	-9416
裤	-9417
觎	-9418
诛	-9419
谎	-9420
践	-9421
述	-9422
酱	-9423
钧	-9424
锲	-9425
镰	-9426
骆	-9427
佘	-9428
冀	-9429
剂	-9430
匣	-9431
厥	-9432
呀	-9433
喀	-9434
妍	-9435
岳	-9436
恿	-9437
惠	-9438
扔	-9439
抉	-9440
挟	-9441
揪	-9442
旖	-9443
昱	-9444
枷	-9445
桶	-9446
沐	-9447
煽	-9448
牲	-9449
狙	-9450
猥	-9451
獗	-9452
眦	-9453
粼	-9454
絮	-9455
绣	-9456
缇	-9457
缥	-9458
翩	-9459
翱	-9460
肺	-9461
臬	-9462
芊	-9463
芬	-9464
葫	-9465
蝙	-9466
螳	-9467
讧	-9468
谐	-9469
醋	-9470
镖	-9471
阱	-9472
隶	-9473
鹄	-9474
§	-9475
≮	-9476
」	-9477
企	-9478
侠	-9479
倨	-9480
傍	-9481
募	-9482
垄	-9483
娄	-9484
娱	-9485
宏	-9486
廉	-9487
抄	-9488
授	-9489
旱	-9490
渭	-9491
溺	-9492
煌	-9493
煮	-9494
璧	-9495
砻	-9496
網	-9497
缈	-9498
舁	-9499
舫	-9500
芳	-9501
蛾	-9502
蝗	-9503
赦	-9504
赵	-9505
蹈	-9506
郎	-9507
雌	-9508
霞	-9509
z	-9510
ī	-9511
∥	-9512
║	-9513
♂	-9514
〢	-9515
仞	-9516
侈	-9517
儒	-9518
匮	-9519
吾	-9520
呗	-9521
哉	-9522
哞	-9523
哩	-9524
哺	-9525
唠	-9526
唬	-9527
嚷	-9528
坷	-9529
奄	-9530
嬴	-9531
學	-9532
宵	-9533
岸	-9534
庐	-9535
惆	-9536
拓	-9537
拴	-9538
攘	-9539
暮	-9540
梨	-9541
棋	-9542
椁	-9543
檀	-9544
殴	-9545
沁	-9546
泾	-9547
淹	-9548
渎	-9549
滓	-9550
瘤	-9551
睾	-9552
矮	-9553
碾	-9554
禾	-9555
绂	-9556
绊	-9557
蚊	-9558
蛤	-9559
觊	-9560
诩	-9561
诫	-9562
诮	-9563
谭	-9564
贬	-9565
辖	-9566
迭	-9567
邸	-9568
钝	-9569
饼	-9570
馅	-9571
馨	-9572
`	-9573
ω	-9574
б	-9575
р	-9576
丆	-9577
亦	-9578
伫	-9579
咪	-9580
唢	-9581
啰	-9582
喳	-9583
噢	-9584
墩	-9585
娜	-9586
婀	-9587
崭	-9588
川	-9589
弈	-9590
彤	-9591
戎	-9592
摁	-9593
栅	-9594
框	-9595
桥	-9596
汩	-9597
涅	-9598
澡	-9599
牟	-9600
犊	-9601
犷	-9602
猬	-9603
瓷	-9604
瘾	-9605
癖	-9606
窘	-9607
簧	-9608
绑	-9609
罴	-9610
芦	-9611
芽	-9612
苞	-9613
茸	-9614
荼	-9615
萤	-9616
蛹	-9617
蜜	-9618
螯	-9619
课	-9620
谣	-9621
蹋	-9622
酌	-9623
锏	-9624
霭	-9625
颁	-9626
飒	-9627
饲	-9628
馍	-9629
魃	-9630
鹅	-9631
÷	-9632
↑	-9633
≤	-9634
乔	-9635
仁	-9636
仍	-9637
凯	-9638
剽	-9639
吏	-9640
哝	-9641
嘈	-9642
均	-9643
巷	-9644
帜	-9645
惬	-9646
慷	-9647
憔	-9648
戬	-9649
扁	-9650
扼	-9651
拗	-9652
挞	-9653
掳	-9654
撬	-9655
旎	-9656
晢	-9657
暧	-9658
柚	-9659
校	-9660
梅	-9661
棉	-9662
棚	-9663
槛	-9664
泌	-9665
洽	-9666
湛	-9667
申	-9668
痹	-9669
硝	-9670
窖	-9671
竿	-9672
绅	-9673
缏	-9674
胭	-9675
臃	-9676
苔	-9677
苹	-9678
虏	-9679
螟	-9680
蟆	-9681
蟹	-9682
赃	-9683
趾	-9684
蹶	-9685
辑	-9686
逍	-9687
遨	-9688
邝	-9689
闺	-9690
鞘	-9691
飚	-9692
鸽	-9693
+	-9694
∫	-9695
∽	-9696
ㄧ	-9697
丄	-9698
串	-9699
仑	-9700
佴	-9701
侣	-9702
偎	-9703
儆	-9704
兑	-9705
勐	-9706
喋	-9707
喔	-9708
噎	-9709
坨	-9710
埃	-9711
姆	-9712
季	-9713
悴	-9714
惺	-9715
拷	-9716
捶	-9717
揣	-9718
敝	-9719
昧	-9720
晷	-9721
書	-9722
栖	-9723
梧	-9724
檄	-9725
殁	-9726
汽	-9727
沽	-9728
涤	-9729
濒	-9730
瀹	-9731
珊	-9732
瑷	-9733
畸	-9734
睬	-9735
睿	-9736
瞌	-9737
矣	-9738
砘	-9739
纰	-9740
